#if defined __ICCARM__
#define __ALIGNED(x) __attribute__((aligned(x)))
#else
#define __ALIGNED(x) __attribute__((aligned(x)))
#endif
const unsigned char model1[] __ALIGNED(16) = {
0x4e,0x4e,0x43,0x55,0x01,0x00,0x01,0x00, 0x01,0x0e,0x11,0x00,0x0a,0x00,0x00,0x00, // 16
0x02,0x00,0x00,0x00,0x00,0x00,0x00,0x00, 0x00,0x01,0x00,0x00,0x02,0x00,0x00,0x00, // 32
0x80,0x01,0x00,0x00,0x00,0x01,0x00,0x00, 0x80,0x00,0x00,0x00,0x00,0x00,0x00,0x00, // 48
0x00,0x00,0x00,0x00,0x00,0x00,0x00,0x00, 0x00,0x00,0x00,0x00,0x00,0x00,0x00,0x00, // 64
0x00,0x00,0x00,0x00,0x00,0x00,0x00,0x00, 0xff,0xff,0xff,0xff,0xff,0xff,0xff,0xff, // 80
0x43,0x4d,0x44,0x00,0x20,0x00,0x80,0x00, 0x50,0x00,0x00,0x00,0x00,0xfe,0x00,0x00, // 96
0x6d,0x61,0x74,0x2e,0x68,0x35,0x0d,0x0a, 0x4d,0x6f,0x6e,0x20,0x41,0x75,0x67,0x20, // 112
0x31,0x30,0x20,0x31,0x31,0x3a,0x32,0x33, 0x3a,0x32,0x35,0x20,0x32,0x30,0x32,0x30, // 128
0x0d,0x0a,0x31,0x34,0x20,0x62,0x69,0x74, 0x73,0x0d,0x0a,0x6e,0x6e,0x63,0x75,0x20, // 144
0x76,0x65,0x72,0x20,0x31,0x2e,0x30,0x61, 0x20,0x32,0x30,0x32,0x30,0x2e,0x30,0x36, // 160
0x2e,0x32,0x37,0x0d,0x0a,0x00,0x00,0x00, 0x00,0x00,0x00,0x00,0x00,0x00,0x00,0x00, // 176
0x00,0x00,0x00,0x00,0x00,0x00,0x00,0x00, 0x00,0x00,0x00,0x00,0x00,0x00,0x00,0x00, // 192
0x00,0x00,0x00,0x00,0x00,0x00,0x00,0x00, 0x00,0x00,0x00,0x00,0x00,0x00,0x00,0x00, // 208
0x43,0x4d,0x44,0x00,0x20,0x02,0x00,0x00, 0xd0,0x00,0x00,0x00,0x10,0x02,0x00,0x00, // 224
0x00,0x01,0x00,0x04,0x07,0x0a,0x06,0x0d, 0x00,0x00,0x00,0x00,0x00,0x00,0x00,0x00, // 240
0x01,0x00,0x0a,0x00,0x01,0x00,0x01,0x00, 0x10,0x00,0x01,0x00,0x00,0x00,0x00,0x00, // 256
0x0a,0x00,0x0e,0xff,0xff,0xff,0xff,0xff, 0x00,0x01,0x01,0x00,0x20,0x00,0x00,0x00, // 272
0x00,0x00,0x03,0x00,0x14,0x00,0x00,0x00, 0x00,0x00,0x00,0x00,0x00,0x00,0x00,0x00, // 288
0x00,0x00,0x00,0x00,0x00,0x00,0x00,0x00, 0x00,0x00,0x00,0x00,0x00,0x00,0x00,0x00, // 304
0x00,0x00,0x00,0x00,0x00,0x00,0x00,0x00, 0x00,0x00,0x00,0x00,0x00,0x00,0x00,0x00, // 320
0x00,0x00,0x00,0x00,0x00,0x00,0x00,0x00, 0x40,0x01,0x00,0x00,0x20,0x00,0x00,0x00, // 336
0x15,0xf0,0xe6,0xf5,0x0f,0xfe,0x5f,0xfc, 0x19,0x0f,0x71,0x04,0x05,0xfd,0xb2,0x01, // 352
0xb3,0xff,0x6a,0x07,0x59,0xf5,0xb9,0xf7, 0xde,0x14,0xc1,0x0b,0x2e,0xfa,0xeb,0x04, // 368
0xea,0x01,0x7f,0xfc,0xdd,0x00,0xad,0x09, 0xd8,0x0d,0xd6,0xf6,0x1f,0xf3,0xb1,0x09, // 384
0x9b,0x0c,0x75,0x0a,0x52,0x04,0x14,0x00, 0xb1,0xf6,0x83,0x01,0xc9,0xff,0x7a,0xf3, // 400
0x1a,0x07,0xe3,0xf3,0x62,0x10,0x95,0xfc, 0x98,0x12,0xc2,0xf6,0xe6,0xff,0xd8,0xfe, // 416
0xc5,0x0b,0xb3,0xfd,0x0b,0x05,0x90,0xfe, 0x16,0xef,0x39,0xea,0x31,0x04,0xd5,0x0a, // 432
0xa5,0x05,0x97,0x0a,0xc6,0xf5,0x49,0x02, 0x23,0xe3,0x79,0xf4,0x60,0xf8,0xb0,0xff, // 448
0x32,0x00,0x61,0xfc,0x61,0xfd,0xee,0xff, 0x11,0x0e,0x72,0xfa,0x4c,0xf7,0x3c,0xfd, // 464
0xf7,0xf1,0xec,0xfe,0xcc,0xf9,0x40,0xf7, 0xd7,0xf7,0x5c,0x11,0x7d,0x0e,0x4f,0x02, // 480
0xb8,0xec,0x73,0xf2,0x7f,0xfd,0x11,0xfb, 0x05,0xf6,0xc3,0xff,0x4b,0x05,0x44,0x08, // 496
0x7b,0xfd,0x69,0xfc,0xd6,0x0f,0x51,0x02, 0x53,0x0c,0xdb,0x1b,0xc0,0x01,0xbd,0x07, // 512
0xcc,0xf9,0xe9,0xf9,0x16,0xf6,0x37,0xf9, 0x5c,0x0c,0x6c,0xfa,0x5b,0x0f,0x3b,0x01, // 528
0x73,0xfc,0x96,0x08,0x70,0xf3,0xf5,0x02, 0xb9,0x02,0x9d,0x00,0x35,0xfb,0xf0,0x08, // 544
0x69,0x04,0x3a,0x03,0x23,0x06,0xb9,0x03, 0x54,0xff,0x0a,0x05,0x1c,0xea,0x39,0x04, // 560
0x54,0xea,0xd4,0x09,0x8e,0x06,0xb3,0xfc, 0xb0,0x06,0x0a,0xfb,0xcf,0xf3,0xe0,0xf3, // 576
0x70,0x05,0xd5,0x07,0x4f,0x0b,0xc9,0x01, 0x2b,0x0a,0xdc,0x0e,0xb8,0x0a,0x46,0x05, // 592
0x26,0x0a,0x00,0x0d,0x8d,0xf3,0x6e,0x10, 0x79,0xff,0xe2,0xf7,0x6c,0xf3,0xd8,0xf5, // 608
0x0e,0x01,0xac,0x00,0xde,0x14,0xd9,0xf9, 0xfa,0x07,0x71,0x0a,0xd5,0x07,0x91,0xf7, // 624
0xed,0x0e,0xd1,0x05,0xc2,0x02,0x61,0x0d, 0x86,0x01,0x5d,0x0c,0xcf,0x06,0x0c,0x00, // 640
0xb3,0x10,0x58,0x0d,0x70,0x06,0x40,0x0b, 0xd7,0xf8,0x10,0xe8,0x7e,0xed,0x4b,0xfb, // 656
0x2c,0x05,0x17,0xff,0x80,0xf8,0x4f,0x05, 0x3f,0xff,0xa7,0xed,0x55,0x06,0xa0,0xfa, // 672
0x60,0x04,0x66,0x03,0x00,0x00,0x06,0xfb, 0x00,0x00,0x4c,0xfe,0x00,0x03,0x52,0x0a, // 688
0x43,0x4d,0x44,0x00,0x20,0x03,0x80,0x00, 0xb0,0x02,0x00,0x00,0x10,0x04,0x00,0x00, // 704
0x01,0x01,0x00,0x00,0x0a,0x00,0x00,0x00, 0x00,0x00,0x00,0x00,0x00,0x00,0x00,0x00, // 720
0x01,0x00,0x10,0x00,0x01,0x00,0x01,0x00, 0x10,0x00,0x01,0x00,0x00,0x00,0x00,0x00, // 736
0x0a,0x00,0xff,0xff,0xff,0xff,0xff,0xff, 0x00,0x00,0x00,0x00,0x00,0x00,0x00,0x00, // 752
0x00,0x00,0x00,0x00,0x00,0x00,0x00,0x00, 0x00,0x00,0x00,0x00,0x00,0x00,0x00,0x00, // 768
0x00,0x00,0x00,0x00,0x00,0x00,0x00,0x00, 0x00,0x00,0x00,0x00,0x00,0x00,0x00,0x00, // 784
0x00,0x00,0x00,0x00,0x00,0x00,0x00,0x00, 0x00,0x00,0x00,0x00,0x00,0x00,0x00,0x00, // 800
0x00,0x00,0x00,0x00,0x00,0x00,0x00,0x00, 0x00,0x00,0x00,0x00,0x00,0x00,0x00,0x00, // 816
0x43,0x4d,0x44,0x00,0x20,0x04,0x00,0x00, 0x30,0x03,0x00,0x00,0x10,0x02,0x00,0x00, // 832
0x01,0x00,0x00,0x04,0x0a,0x0d,0x08,0x0d, 0x00,0x00,0x00,0x00,0x00,0x00,0x00,0x00, // 848
0x01,0x00,0x10,0x00,0x01,0x00,0x01,0x00, 0x20,0x00,0x01,0x00,0x00,0x00,0x00,0x00, // 864
0x0a,0x00,0x0f,0xff,0xff,0xff,0xff,0xff, 0x00,0x00,0x01,0x00,0x40,0x00,0x00,0x00, // 880
0x00,0x01,0x02,0x00,0x20,0x00,0x00,0x00, 0x00,0x00,0x00,0x00,0x00,0x00,0x00,0x00, // 896
0x00,0x00,0x00,0x00,0x00,0x00,0x00,0x00, 0x00,0x00,0x00,0x00,0x00,0x00,0x00,0x00, // 912
0x00,0x00,0x00,0x00,0x00,0x00,0x00,0x00, 0x00,0x00,0x00,0x00,0x00,0x00,0x00,0x00, // 928
0x00,0x00,0x00,0x00,0x00,0x00,0x00,0x00, 0x00,0x04,0x00,0x00,0x40,0x00,0x00,0x00, // 944
0x8e,0x08,0x27,0xfe,0x08,0xfc,0xf7,0xf4, 0xbd,0xf6,0x8b,0x04,0x4b,0x01,0x24,0x00, // 960
0xf9,0x03,0xff,0xf5,0xe7,0x03,0x08,0xf4, 0xaa,0x03,0xeb,0x08,0xdd,0xfb,0x25,0xf7, // 976
0xc4,0xf1,0xe2,0xfc,0x77,0x06,0xab,0x03, 0x6b,0x0b,0xd8,0xf6,0xa7,0x0d,0x73,0xf8, // 992
0x19,0x09,0xea,0x03,0x19,0x07,0x77,0xff, 0x53,0xf7,0x44,0xf6,0xd0,0xf0,0x6d,0xef, // 1008
0xb7,0xf6,0x57,0x03,0xa0,0xfd,0x3f,0xfc, 0x2c,0x05,0x8a,0x03,0xd0,0x0c,0xd9,0x01, // 1024
0x78,0xfa,0x70,0xff,0x87,0x03,0x14,0x02, 0x86,0xf8,0x38,0x03,0xa1,0xf5,0x19,0xf2, // 1040
0x18,0x04,0x59,0xf8,0xc0,0xf8,0xf5,0x02, 0x3a,0x09,0xaa,0xf5,0xc3,0x06,0x35,0xff, // 1056
0xf5,0xfe,0xf4,0xfd,0x2c,0x04,0xf5,0xf7, 0x02,0x09,0x28,0xfb,0x3e,0x05,0xdb,0x0d, // 1072
0xb7,0xfd,0x4d,0x04,0xcc,0xfe,0xb9,0x09, 0x64,0xf2,0x8f,0x09,0x3e,0xfb,0xaa,0xfa, // 1088
0x99,0x0e,0xd8,0xfc,0xb3,0x04,0x8a,0x0e, 0x0b,0xf7,0x86,0x08,0x42,0x05,0x9d,0xf0, // 1104
0x24,0xf5,0xf5,0x07,0x5b,0xfd,0xc1,0xf5, 0xc8,0x06,0xcf,0xf7,0x53,0x01,0x1a,0xff, // 1120
0x63,0xf6,0xea,0xf8,0xc1,0xf8,0x5c,0xfe, 0xd3,0xfe,0x1b,0xfb,0x37,0x03,0xd0,0x04, // 1136
0xe6,0x03,0xca,0xff,0x2f,0xfd,0x24,0xf5, 0xd4,0x05,0x8f,0xf9,0x79,0xef,0xc8,0xed, // 1152
0x8d,0x05,0x9e,0x06,0x9e,0xf8,0x71,0x07, 0x5a,0x04,0xd0,0xff,0xbf,0x00,0x86,0xfd, // 1168
0x1c,0x06,0xf6,0x0f,0x01,0xfb,0xc7,0x04, 0xb7,0xee,0x74,0x00,0xc3,0xf7,0x43,0x06, // 1184
0x32,0xf0,0x33,0x0b,0x3a,0x00,0xa1,0x0e, 0xa3,0x09,0x6f,0xfc,0x97,0x00,0x4e,0xfb, // 1200
0x65,0xf5,0x96,0x00,0xb7,0xfc,0x0e,0x0f, 0x01,0xf7,0xe6,0xf5,0xe0,0x03,0x8c,0xf9, // 1216
0xb2,0xf7,0x58,0x00,0x06,0xfb,0xf9,0x02, 0x5f,0xfa,0x62,0x08,0xab,0x03,0x58,0x03, // 1232
0xa4,0xec,0xdd,0xef,0x5d,0xfa,0x0e,0xf6, 0x06,0x0d,0x33,0xfd,0x93,0xff,0x74,0xf5, // 1248
0x3c,0xfd,0xa9,0x08,0xed,0xf5,0xc6,0xf4, 0xf7,0x05,0x27,0x06,0x5b,0xfd,0x24,0x07, // 1264
0x99,0xf3,0x47,0xfc,0x1c,0xf6,0x64,0x00, 0xed,0xfd,0x34,0x03,0xae,0xfc,0x94,0x01, // 1280
0xbb,0xfd,0x0c,0xf8,0x87,0x09,0x72,0xf7, 0xbc,0x02,0x22,0x03,0xc8,0x08,0x5c,0xf6, // 1296
0x06,0xf0,0xf3,0xf2,0x28,0x05,0x93,0xfb, 0xcd,0x00,0xa3,0xf3,0x20,0xf9,0x0d,0xf2, // 1312
0x98,0xfd,0x17,0xfd,0x2a,0x03,0x40,0x0c, 0xfc,0x02,0x85,0x0b,0x6f,0xfe,0x8d,0x15, // 1328
0x4d,0x03,0xa1,0xf5,0x5e,0x01,0xcf,0x07, 0xea,0xf3,0xf0,0x09,0xb5,0xef,0x1a,0x07, // 1344
0x4d,0x01,0xcb,0xf9,0x4e,0xfc,0x95,0x0c, 0xd8,0x08,0x82,0xfe,0x8b,0xf4,0x18,0x10, // 1360
0x14,0xfd,0xc3,0xfb,0x03,0xfa,0xbb,0xfb, 0x95,0xfc,0x6f,0x04,0x63,0xfa,0x09,0xf5, // 1376
0x29,0xf1,0xec,0x07,0xd2,0x07,0xd3,0x04, 0x32,0xfd,0xd3,0xf8,0xc2,0xf8,0x20,0x01, // 1392
0x8c,0xfe,0x09,0x05,0xec,0xfe,0x44,0x03, 0x9b,0xf2,0x57,0xfb,0x19,0xf5,0x24,0xf8, // 1408
0x5d,0xf9,0x57,0x01,0xad,0xf6,0xda,0xf7, 0x0f,0x05,0xfd,0x0c,0x62,0xf8,0x2d,0x0c, // 1424
0x69,0xff,0x74,0xff,0x65,0x02,0xdf,0x05, 0xe6,0xfd,0xb1,0xf2,0x81,0xf8,0x6a,0xf8, // 1440
0xa8,0xff,0x90,0x06,0x24,0xfa,0x87,0x02, 0xb3,0xfd,0xf4,0x0b,0x1e,0x12,0x8b,0x03, // 1456
0xf1,0xfc,0x7e,0xfd,0x72,0xf9,0xb9,0xf4, 0x9c,0x05,0x2e,0x03,0x85,0x0f,0xa3,0x09, // 1472
0xcc,0x17,0x81,0x05,0x98,0xff,0x18,0xf8, 0x3d,0x03,0x60,0xfd,0xc0,0x01,0xed,0x05, // 1488
0xeb,0xf1,0x1a,0xfd,0x7a,0x06,0xa6,0x00, 0x71,0x11,0xcb,0xf9,0xc5,0xf6,0x76,0x00, // 1504
0x8c,0x10,0xde,0x04,0x3e,0xfc,0x8d,0xf5, 0xd4,0xfc,0x7a,0x04,0x60,0x08,0xa0,0x05, // 1520
0x8e,0x0a,0x99,0xfd,0x1d,0x08,0x1d,0x06, 0xb1,0x02,0xff,0x01,0x39,0xf8,0x80,0x04, // 1536
0x8f,0x00,0x16,0xf9,0xb8,0xf9,0x52,0xf9, 0x3b,0x02,0xb0,0x05,0xaf,0xf2,0xd2,0xf9, // 1552
0xd6,0x0e,0x7f,0x0e,0x35,0x01,0xd3,0xff, 0x57,0x00,0xc6,0x08,0x05,0xf3,0xee,0x02, // 1568
0xa3,0xfa,0xd8,0x0a,0xda,0x00,0x51,0x0d, 0x6c,0xfa,0xaa,0xf8,0x79,0x07,0x59,0xf6, // 1584
0x79,0x0b,0xf8,0x04,0x2e,0x05,0x28,0x03, 0x75,0x00,0xf6,0xf0,0x08,0xf8,0x16,0x03, // 1600
0xca,0xf2,0x0e,0x08,0x49,0x01,0x59,0xff, 0xfd,0x02,0x4f,0xf9,0xfe,0xfe,0xd2,0xfe, // 1616
0xd0,0xf4,0x83,0x07,0x0b,0x09,0x24,0xf6, 0xd5,0xf6,0xb5,0x00,0x58,0x02,0x5d,0x10, // 1632
0xef,0xf6,0x11,0x00,0x2f,0xf6,0xb6,0x03, 0xd6,0x09,0xb9,0x06,0xa5,0xf5,0x90,0xfc, // 1648
0x0a,0xfa,0x26,0x05,0x21,0xf7,0xa1,0x00, 0x3f,0x13,0xf6,0xfe,0x04,0x0b,0x97,0xfe, // 1664
0x58,0xf3,0x3d,0xfe,0xff,0x03,0x66,0xf7, 0xb0,0xfa,0x1e,0xf9,0x30,0x01,0x81,0xfd, // 1680
0x73,0x03,0x19,0xf7,0xa2,0x06,0x9a,0xef, 0xb0,0xff,0xd1,0xff,0x22,0xfe,0x5a,0x00, // 1696
0xd6,0x09,0x86,0xfa,0x21,0x05,0xde,0x0c, 0x76,0x03,0x1e,0x07,0x45,0xf8,0x6c,0xf8, // 1712
0xe1,0xf1,0xae,0x01,0x71,0x02,0xdb,0x04, 0xb3,0x0e,0xbf,0x13,0xeb,0x02,0xb7,0x00, // 1728
0x23,0xfa,0xdd,0xf9,0x2b,0x0b,0xb2,0xff, 0x78,0xf8,0xb2,0xff,0x4a,0xfb,0x20,0xf7, // 1744
0xe9,0x08,0x50,0x07,0xc3,0xf5,0xf6,0xf7, 0x8a,0xfc,0xe1,0xfa,0x02,0x03,0xdc,0xf5, // 1760
0xb2,0xfc,0x79,0xfe,0xb5,0x08,0xc0,0xfd, 0x25,0xff,0x8d,0x0e,0xae,0x03,0xb6,0xe3, // 1776
0xc5,0xe8,0xd6,0x05,0x21,0xfd,0x5a,0xed, 0xf5,0x06,0xb6,0xff,0x15,0x04,0x28,0xf5, // 1792
0xc8,0xef,0xab,0x05,0x99,0xfe,0x75,0x01, 0xba,0xf8,0x31,0xf3,0xa6,0xfa,0xd6,0x02, // 1808
0xb8,0x01,0x0a,0xf9,0xc7,0xfe,0xb5,0xfb, 0x89,0x00,0x4b,0x0f,0x7d,0xf9,0xf7,0xff, // 1824
0x47,0xf7,0xde,0xfc,0x6d,0xf6,0x6a,0x08, 0x56,0xf8,0x9b,0x00,0x66,0xff,0xb2,0xf1, // 1840
0xe3,0xfc,0x8f,0x04,0x6e,0xfe,0x6d,0xfd, 0xc8,0xe8,0x15,0xf6,0x68,0x0b,0x97,0xf4, // 1856
0xe5,0xf4,0x99,0x02,0x99,0x01,0xf3,0x02, 0x88,0x00,0x6e,0xf7,0x1c,0x09,0xfb,0x0a, // 1872
0xdd,0x0e,0xde,0xfe,0x64,0xff,0x14,0x05, 0x69,0xfd,0x3e,0xfb,0xa7,0xfb,0x99,0xff, // 1888
0x79,0x09,0xf4,0x09,0xc5,0xf8,0x74,0xfe, 0x8d,0xf5,0x04,0x09,0x88,0xff,0xcc,0x04, // 1904
0x6a,0xf8,0x45,0x06,0x20,0xf5,0xd4,0x01, 0x6b,0xf7,0x2f,0xf6,0x83,0xfb,0x83,0xf7, // 1920
0x08,0x03,0xd7,0xfe,0x40,0x04,0x8a,0xfa, 0x7d,0xfd,0x70,0xfa,0xf4,0x01,0x9b,0xf4, // 1936
0x15,0xff,0x5a,0xfc,0xc2,0x06,0x97,0x00, 0xda,0x02,0x01,0xfb,0x33,0xfa,0x16,0xf7, // 1952
0x15,0x08,0x0b,0xfb,0xc5,0x07,0x4d,0x05, 0x7d,0xfa,0x03,0x0a,0xce,0x09,0xd1,0x07, // 1968
0xec,0xf8,0x07,0x16,0xf6,0xf4,0x43,0x04, 0x35,0xf7,0x33,0xfa,0x27,0x0a,0x21,0xf9, // 1984
0xe9,0x08,0x76,0xf6,0x87,0xf7,0x9b,0xfc, 0x33,0xe9,0x45,0x07,0x9d,0x18,0x55,0xfa, // 2000
0x82,0xf7,0x4a,0x0e,0xe9,0x04,0xbd,0xfc, 0x0e,0xf0,0x85,0xf4,0xcc,0xeb,0xe6,0xf5, // 2016
0xf8,0x06,0x66,0x05,0x73,0x07,0xc0,0xef, 0x35,0xfd,0x35,0xfe,0x91,0xf8,0x16,0x08, // 2032
0x43,0x4d,0x44,0x00,0x20,0x05,0x80,0x00, 0xf0,0x07,0x00,0x00,0x10,0x04,0x00,0x00, // 2048
0x00,0x00,0x00,0x00,0x0a,0x00,0x00,0x00, 0x00,0x00,0x00,0x00,0x00,0x00,0x00,0x00, // 2064
0x01,0x00,0x20,0x00,0x01,0x00,0x01,0x00, 0x20,0x00,0x01,0x00,0x00,0x00,0x00,0x00, // 2080
0x0a,0x00,0xff,0xff,0xff,0xff,0xff,0xff, 0x00,0x00,0x00,0x00,0x00,0x00,0x00,0x00, // 2096
0x00,0x00,0x00,0x00,0x00,0x00,0x00,0x00, 0x00,0x00,0x00,0x00,0x00,0x00,0x00,0x00, // 2112
0x00,0x00,0x00,0x00,0x00,0x00,0x00,0x00, 0x00,0x00,0x00,0x00,0x00,0x00,0x00,0x00, // 2128
0x00,0x00,0x00,0x00,0x00,0x00,0x00,0x00, 0x00,0x00,0x00,0x00,0x00,0x00,0x00,0x00, // 2144
0x00,0x00,0x00,0x00,0x00,0x00,0x00,0x00, 0x00,0x00,0x00,0x00,0x00,0x00,0x00,0x00, // 2160
0x43,0x4d,0x44,0x00,0x20,0x06,0x00,0x00, 0x70,0x08,0x00,0x00,0x10,0x02,0x00,0x00, // 2176
0x00,0x01,0x00,0x04,0x0a,0x0d,0x08,0x0d, 0x00,0x00,0x00,0x00,0x00,0x00,0x00,0x00, // 2192
0x01,0x00,0x20,0x00,0x01,0x00,0x01,0x00, 0x40,0x00,0x01,0x00,0x00,0x00,0x00,0x00, // 2208
0x0a,0x00,0x0f,0xff,0xff,0xff,0xff,0xff, 0x00,0x01,0x01,0x00,0x80,0x00,0x00,0x00, // 2224
0x00,0x00,0x02,0x00,0x40,0x00,0x00,0x00, 0x00,0x00,0x00,0x00,0x00,0x00,0x00,0x00, // 2240
0x00,0x00,0x00,0x00,0x00,0x00,0x00,0x00, 0x00,0x00,0x00,0x00,0x00,0x00,0x00,0x00, // 2256
0x00,0x00,0x00,0x00,0x00,0x00,0x00,0x00, 0x00,0x00,0x00,0x00,0x00,0x00,0x00,0x00, // 2272
0x00,0x00,0x00,0x00,0x00,0x00,0x00,0x00, 0x00,0x10,0x00,0x00,0x80,0x00,0x00,0x00, // 2288
0x86,0x02,0x7f,0xfd,0x67,0x02,0x3c,0xf8, 0xcb,0x0b,0x76,0x07,0xb7,0x05,0x2e,0x0a, // 2304
0xdc,0xfc,0xe7,0xf2,0x96,0xfe,0x22,0xf5, 0xa3,0x04,0x3d,0xff,0x7f,0xfa,0xe2,0xf7, // 2320
0xd5,0xed,0x58,0xfa,0xdc,0xf9,0x9d,0x07, 0xf8,0xf8,0x99,0xf6,0x9e,0x09,0xcf,0x05, // 2336
0x32,0x02,0x98,0xf4,0x2c,0x05,0xb9,0x06, 0x22,0x08,0xcb,0x01,0x16,0x00,0x07,0x08, // 2352
0x7d,0xfb,0x51,0xfa,0xf5,0x01,0x9c,0x05, 0x1d,0x00,0xc4,0x01,0xaf,0xfa,0x1a,0xf7, // 2368
0x94,0xff,0x82,0x05,0x37,0xf8,0xfe,0x03, 0x04,0xfa,0xd3,0x00,0x35,0xfb,0x2d,0xff, // 2384
0x9a,0xfc,0xff,0x03,0x25,0xf9,0x75,0xfe, 0xbf,0x02,0x97,0xfa,0x7e,0xfa,0x52,0xf7, // 2400
0xc6,0xfe,0x09,0x02,0x29,0xfc,0x25,0x05, 0xe6,0x04,0xa9,0x01,0x97,0xfe,0xd3,0xfa, // 2416
0x83,0x07,0x2d,0xf8,0xf7,0x06,0xf6,0xf9, 0xf5,0x07,0xb0,0x00,0xf6,0xfe,0xb0,0x05, // 2432
0xc9,0x03,0x00,0x01,0x59,0xfa,0x8d,0xff, 0xa5,0xfc,0xe9,0xfe,0xa3,0xfb,0x58,0x01, // 2448
0xdd,0x05,0xbc,0xfe,0xc6,0x08,0x5b,0x02, 0x98,0xf6,0x4f,0xfb,0xad,0xff,0xc2,0x0f, // 2464
0x0d,0x0e,0x4e,0xf6,0x6f,0xff,0x71,0x0a, 0xe1,0xfe,0x1e,0xf6,0xf1,0x04,0x43,0xfc, // 2480
0x73,0xfc,0x51,0xfc,0xf5,0x04,0xd5,0x05, 0x97,0x00,0x31,0xf9,0x60,0xf6,0xb6,0xff, // 2496
0x97,0xfd,0x7e,0x04,0x16,0x07,0xaa,0xfd, 0x62,0xfb,0xf3,0x01,0xbc,0xfc,0xb4,0x05, // 2512
0xcf,0x00,0xbf,0xfc,0xbd,0xf9,0x62,0xf9, 0xb2,0x02,0x55,0x00,0x81,0xfb,0x83,0x00, // 2528
0x9e,0xfa,0xac,0x05,0x9d,0xf9,0x7e,0x07, 0xab,0xf6,0x2e,0x05,0x1a,0x06,0x2a,0xff, // 2544
0x5f,0xfd,0xb4,0xf8,0x99,0xfb,0xab,0xff, 0x64,0x0e,0xc0,0x05,0x92,0x07,0xb1,0x0c, // 2560
0x08,0xf7,0xb9,0xf6,0xdb,0xfa,0xd3,0xf2, 0x6d,0x0a,0x9e,0x05,0x73,0x07,0xec,0x00, // 2576
0xfd,0xf1,0x30,0xff,0xdd,0x0e,0x4c,0x07, 0x18,0xfd,0x4c,0x00,0x4c,0x01,0x97,0x0d, // 2592
0x32,0xfd,0xe0,0xff,0x75,0x01,0x4e,0x01, 0x29,0x04,0xa7,0x08,0x97,0x04,0xe7,0x07, // 2608
0x6c,0x02,0x7d,0xf7,0x5c,0x08,0x08,0xff, 0xad,0x05,0x9c,0xf9,0xa4,0x05,0xc8,0x07, // 2624
0x83,0xff,0xdb,0xf9,0x3e,0x06,0x82,0xff, 0xad,0xfc,0xe4,0xff,0x84,0x02,0xbd,0xfc, // 2640
0x95,0xf4,0xea,0xf0,0x72,0x01,0x4a,0x07, 0xb0,0x03,0xe1,0xfc,0x8d,0xfa,0x3b,0x11, // 2656
0x45,0x04,0xc1,0xf6,0x55,0x06,0x0b,0x0a, 0x45,0x03,0x30,0xfb,0x62,0x06,0x5c,0x0a, // 2672
0x4a,0xfe,0x0d,0x03,0x44,0x02,0x29,0xff, 0x07,0x02,0xa6,0x00,0xa6,0x0c,0xa6,0xf6, // 2688
0xdb,0x03,0xf4,0xff,0x81,0x00,0x77,0xff, 0x88,0x02,0xf1,0xfd,0x89,0x0f,0xc9,0xf8, // 2704
0xc6,0xed,0x48,0xfe,0xea,0x00,0xa9,0xf4, 0x8a,0xf3,0xcf,0xfa,0xfd,0xf5,0xa6,0xf7, // 2720
0xf7,0xff,0x33,0x06,0x8b,0xf9,0xae,0xf5, 0xe4,0xf4,0x78,0xfc,0x53,0x02,0x84,0x02, // 2736
0xd0,0x00,0x18,0xfc,0x8f,0x08,0x16,0xf7, 0x1d,0x0b,0x2c,0xfe,0xcf,0x03,0xec,0x06, // 2752
0x05,0xff,0x37,0x00,0xc2,0x03,0x5f,0xfe, 0x68,0x05,0x3d,0x06,0x79,0x00,0xce,0x03, // 2768
0x22,0xf2,0x27,0xf9,0xc2,0xfc,0x85,0x0a, 0xc4,0xfb,0xc7,0x01,0xd2,0xfd,0xa2,0x08, // 2784
0x20,0xfb,0x64,0xfe,0x05,0x07,0xa7,0x0c, 0x82,0x00,0x9c,0x04,0x79,0x04,0xca,0x01, // 2800
0x75,0xfb,0xa4,0xe7,0x53,0xfb,0xc8,0x03, 0x69,0x0b,0xfa,0x01,0x60,0x00,0x24,0xfc, // 2816
0x15,0xf9,0x16,0x01,0xbf,0xfb,0xbe,0xfb, 0xa3,0x0a,0xd4,0x01,0xfe,0xf6,0xfc,0x04, // 2832
0x33,0xff,0xb3,0x02,0x62,0xf7,0x22,0x04, 0xb9,0xeb,0x98,0xfd,0x2d,0xfd,0x44,0x0c, // 2848
0xbc,0x04,0xda,0xfb,0x0f,0x01,0x0b,0x0c, 0x2e,0x01,0x55,0xfb,0xf9,0xfb,0x50,0x01, // 2864
0xfd,0xfc,0x90,0xf3,0x05,0xfd,0x0b,0x00, 0x5b,0x09,0xa3,0xfd,0x8e,0x04,0xd4,0x01, // 2880
0xf0,0xef,0xb7,0x00,0x24,0x03,0x47,0xf8, 0x6b,0x08,0x3d,0x05,0xa1,0x08,0x56,0xfd, // 2896
0x54,0xf6,0xd1,0xf6,0xa8,0x03,0x6c,0x02, 0x83,0xff,0xde,0xf9,0xdf,0xfe,0x44,0x15, // 2912
0x4d,0x06,0xe5,0xf3,0xe6,0xfd,0xce,0xfe, 0x59,0x06,0x81,0x03,0xa5,0x07,0xce,0x01, // 2928
0x2b,0x05,0xe7,0x01,0x61,0xf6,0x35,0x03, 0x67,0xff,0x1e,0x06,0x03,0xfc,0x5c,0xfe, // 2944
0xf1,0xff,0xef,0x00,0x26,0x00,0xb4,0xfb, 0xf5,0xfd,0x2a,0x02,0x0c,0x05,0xc5,0xf5, // 2960
0x4c,0x01,0xac,0x01,0x41,0x02,0x4d,0xf7, 0xef,0xf9,0xd1,0xfd,0x1e,0xf8,0x87,0xfa, // 2976
0x04,0xfb,0x07,0xf8,0x70,0x01,0xd7,0xfa, 0xc5,0x04,0xd6,0xfb,0x9c,0x04,0xf8,0x04, // 2992
0xf7,0x01,0xf4,0xfb,0x22,0x00,0xf7,0xff, 0xc4,0x04,0x9d,0x07,0x39,0xf8,0x1e,0x00, // 3008
0xf7,0x01,0x79,0xfc,0xa2,0xfa,0x64,0x05, 0x02,0xfe,0x9e,0xfe,0x66,0xf9,0xca,0xfa, // 3024
0xaf,0xfe,0x7c,0x04,0x23,0xf9,0x76,0xfb, 0xd0,0xfb,0xbf,0xfc,0x43,0xff,0x21,0x02, // 3040
0x90,0xf9,0xc3,0x01,0x7d,0xfe,0x58,0xf9, 0x9f,0xfe,0x19,0x02,0x16,0xff,0x2a,0xfd, // 3056
0xca,0x00,0x70,0xff,0x90,0xfa,0x3b,0x01, 0x18,0x0a,0x8f,0x01,0x53,0x03,0xba,0xff, // 3072
0x83,0x03,0xa7,0xf3,0x98,0x01,0xd4,0xff, 0xf6,0xfc,0xe9,0xfa,0x57,0xf6,0xfa,0xff, // 3088
0x56,0x04,0xfe,0x01,0x43,0x08,0xde,0xfb, 0x12,0xfb,0xb7,0x04,0x05,0xf8,0x42,0x06, // 3104
0x1c,0x01,0x1f,0x06,0xb7,0xfa,0x68,0x00, 0x3c,0x08,0xa8,0x04,0x68,0xfb,0xbc,0x0a, // 3120
0x0c,0x00,0xa8,0xed,0x26,0x08,0x1d,0xe8, 0x9b,0x08,0x5c,0x06,0x1f,0xff,0x44,0xfb, // 3136
0x44,0x08,0xe3,0xf3,0x58,0x06,0x9b,0x06, 0x5a,0xff,0x9e,0xec,0x05,0x00,0x4b,0x09, // 3152
0xc9,0xfe,0xe3,0xf9,0xdb,0xfa,0x62,0x02, 0x39,0x01,0xf6,0x06,0x2f,0x00,0xcc,0xf9, // 3168
0x7f,0x09,0x78,0xf6,0x16,0xf3,0xe0,0xfb, 0x25,0xf9,0x7f,0xfb,0xee,0xf8,0x85,0x07, // 3184
0x89,0x08,0x39,0xf7,0x2d,0xfd,0x91,0x09, 0x8e,0x05,0x29,0x01,0x2b,0xfd,0x56,0xfe, // 3200
0x49,0x0d,0xdd,0x02,0x66,0x08,0xe6,0x09, 0x9e,0x00,0xe1,0xfc,0x97,0xff,0xfa,0x07, // 3216
0x3e,0xf4,0xba,0xfd,0x06,0x01,0xde,0xf7, 0x5a,0x00,0x21,0x0b,0x0e,0xfe,0x8b,0x0c, // 3232
0xc1,0x02,0x84,0x11,0xcd,0x00,0x29,0x09, 0x2c,0xf8,0x4c,0x05,0x8c,0xfc,0xc2,0x04, // 3248
0x10,0xff,0xb1,0x01,0x1a,0xf9,0x07,0xfa, 0x92,0xf7,0x5e,0xfe,0x7c,0xfd,0xb8,0xfc, // 3264
0xc5,0xff,0x5c,0x09,0x4a,0x02,0xde,0x0c, 0x6c,0xf8,0xa3,0xfa,0x70,0x04,0xc4,0xff, // 3280
0xda,0xf6,0x4f,0x02,0x89,0x01,0x0d,0xf6, 0xb6,0xfd,0x5b,0x02,0xf8,0x03,0x8d,0xfb, // 3296
0x70,0xf7,0x8c,0xff,0x14,0x00,0x3a,0xfe, 0xe3,0x01,0x43,0xf7,0x07,0x03,0x6b,0xf8, // 3312
0x6b,0x07,0xcf,0xf9,0xf9,0xfc,0xd9,0xfe, 0xe9,0xf7,0xc3,0xfb,0xe8,0xfe,0x54,0x05, // 3328
0x29,0x01,0xd5,0xff,0x1f,0x04,0x78,0x0d, 0x2e,0x03,0xd2,0x01,0x80,0x0b,0x7b,0x05, // 3344
0x3d,0x00,0xe2,0xfc,0x49,0xfb,0x35,0x01, 0xd5,0xff,0x74,0xfa,0x70,0xfb,0x23,0xff, // 3360
0x6b,0xff,0xf6,0x0a,0xf9,0x00,0xde,0xfe, 0x4e,0x03,0x52,0xf4,0x1d,0xfc,0x8d,0x06, // 3376
0x4c,0xfd,0x06,0xf7,0x8c,0x07,0x65,0x02, 0xf0,0xff,0x43,0x07,0x4f,0x05,0x3b,0xf9, // 3392
0x6e,0xff,0x54,0xf4,0x4e,0xfb,0xd0,0x01, 0x83,0xfe,0x5e,0xfa,0x75,0xf9,0x5c,0x01, // 3408
0x9f,0xfa,0x25,0x01,0x20,0xfb,0x4b,0xf9, 0xbf,0x01,0x89,0xf8,0x92,0x05,0x8d,0x00, // 3424
0x18,0xf9,0x66,0x03,0xb1,0xfb,0x4e,0xfe, 0x03,0x04,0x18,0xf7,0x05,0x00,0x7e,0x06, // 3440
0xa2,0xfb,0x8e,0xf6,0x82,0x00,0x83,0xfb, 0xe6,0xf7,0x8a,0xf9,0x78,0x06,0x7a,0x01, // 3456
0xeb,0xfc,0x59,0xff,0x72,0xff,0xef,0x07, 0x83,0x01,0xf6,0xf6,0xf2,0x0e,0x75,0xf6, // 3472
0xc3,0xf7,0x38,0x09,0x6b,0x03,0x74,0x03, 0xb3,0xf0,0x89,0xfa,0x4a,0xfb,0x47,0xf5, // 3488
0x92,0xfe,0xbe,0x08,0xb0,0xfd,0x5e,0xf7, 0x33,0x01,0xe7,0xfd,0xbc,0xfa,0x28,0x04, // 3504
0x58,0xfb,0x6d,0x03,0x31,0x0d,0x6c,0x05, 0x18,0xf2,0xc7,0x05,0x73,0xf7,0x34,0x05, // 3520
0x19,0x06,0x12,0xf1,0xc7,0xfb,0xe3,0x02, 0x42,0xfd,0xa4,0xf4,0x75,0xf2,0xc1,0xf6, // 3536
0xb4,0x04,0xa6,0xf1,0x0b,0xfd,0x5c,0xfa, 0x5b,0x06,0x65,0x03,0x54,0x08,0x76,0xf7, // 3552
0xce,0x06,0x6f,0x05,0xf8,0xfd,0xf8,0x03, 0x19,0x08,0x15,0xfc,0x38,0xfd,0x29,0x01, // 3568
0x55,0x01,0x8b,0x06,0xb1,0xfe,0xc9,0x01, 0x12,0xf9,0xb1,0x07,0xc6,0xfb,0x51,0x02, // 3584
0x29,0xfd,0xc3,0xfb,0x06,0x00,0x44,0x05, 0xfd,0xfe,0x85,0xf7,0xb2,0x04,0xcc,0x02, // 3600
0x01,0xf9,0xf7,0xfa,0x00,0x04,0xb2,0xf7, 0x38,0xfe,0x94,0x05,0x3d,0xfa,0x45,0xfe, // 3616
0x09,0xfc,0xdd,0x03,0x55,0x04,0x65,0x02, 0x33,0xf8,0x3c,0x00,0x5a,0x05,0xb1,0xfa, // 3632
0xbc,0x04,0xa7,0x02,0xf0,0xfd,0x76,0x06, 0x53,0x02,0xc1,0x02,0xb1,0x04,0xf3,0xfb, // 3648
0x0c,0x00,0x29,0xf9,0x69,0x01,0x99,0x15, 0x3a,0x05,0x97,0xfd,0xb5,0x05,0x9c,0x02, // 3664
0x9d,0x03,0x91,0x02,0x91,0x0f,0x7f,0xfe, 0xf9,0xf4,0x6e,0x00,0x0b,0xef,0xed,0xfc, // 3680
0xc6,0x02,0xbf,0x0a,0x2b,0xf3,0xdf,0xf8, 0xc9,0xfe,0xfc,0xff,0x35,0xfb,0x73,0x09, // 3696
0x7b,0x05,0xcc,0x09,0xf3,0xfc,0x3e,0xfb, 0x39,0xfc,0x07,0x05,0x81,0x03,0x27,0xed, // 3712
0x96,0xf7,0xd6,0xfd,0x93,0xfb,0xf4,0xfc, 0xfb,0x00,0x09,0x0a,0x7e,0x0c,0xea,0xf8, // 3728
0xae,0xf8,0xf2,0x03,0x67,0x08,0xd8,0xfc, 0x9a,0xfc,0x93,0xfc,0x97,0x03,0x03,0xf8, // 3744
0x87,0xfb,0x91,0x05,0x1a,0x09,0x5b,0xf8, 0xb7,0x07,0x32,0x02,0xd0,0xff,0x74,0x00, // 3760
0x3f,0x04,0x2d,0xfd,0xd3,0xf9,0xc4,0xfa, 0xf6,0xfe,0x63,0x00,0x32,0xf6,0x05,0x03, // 3776
0x62,0xfc,0x3b,0xf8,0x0b,0x06,0x47,0x02, 0x59,0xf8,0x50,0xfb,0x09,0xfa,0xa9,0xf9, // 3792
0x5d,0xff,0xb6,0x05,0xd9,0xf9,0x1a,0xfc, 0x00,0xff,0x55,0xfb,0x02,0xff,0x3b,0x03, // 3808
0x8d,0x03,0x87,0xfe,0xb5,0x02,0xb5,0x00, 0xdd,0x05,0x6a,0x02,0x98,0xf9,0x61,0x04, // 3824
0x1b,0x02,0x6f,0x04,0xc8,0xff,0x43,0xf6, 0x26,0x01,0xc7,0x03,0x01,0x02,0xed,0xfe, // 3840
0xff,0xf8,0x44,0xfb,0xe6,0x05,0xf5,0x06, 0x50,0x0f,0xe6,0xf0,0x2e,0x00,0x0c,0x00, // 3856
0x07,0xfa,0xb3,0xf9,0x24,0x07,0x80,0xfc, 0x15,0xfa,0x4b,0xfb,0xb5,0x07,0xd7,0xfe, // 3872
0xae,0x09,0x44,0x00,0xaa,0xfb,0x3a,0x05, 0xf1,0xf7,0x9d,0xf1,0x44,0xf8,0x2c,0x00, // 3888
0xdc,0x01,0xf8,0xf5,0x75,0xfc,0x42,0xf9, 0x37,0xfd,0xbe,0x01,0x2d,0x00,0xb2,0x02, // 3904
0x92,0xfc,0x2f,0x02,0xa0,0xff,0xf6,0x05, 0xfd,0x03,0x29,0xfb,0x1b,0xf9,0x5f,0x02, // 3920
0xda,0xfd,0xd5,0x01,0x42,0x05,0x5b,0x02, 0x7a,0xf6,0xca,0xff,0xda,0x03,0xed,0xfb, // 3936
0xb0,0xfd,0x5f,0xfe,0x4b,0xfc,0x4e,0xfb, 0x17,0x03,0xf9,0xfe,0x0e,0x04,0xb4,0xf9, // 3952
0x8a,0x02,0xc1,0xfe,0x72,0x06,0xc4,0x01, 0xfc,0x05,0x8b,0x03,0xd1,0x02,0x2a,0x09, // 3968
0x92,0xf7,0x4c,0xfa,0xb7,0xfa,0xd0,0xf8, 0x6a,0x02,0x1a,0x00,0x0c,0x0d,0xe9,0xff, // 3984
0x36,0xf5,0x33,0xfc,0xc9,0x08,0x12,0x0b, 0xf2,0x07,0xc2,0xf9,0x84,0xff,0x23,0x09, // 4000
0x18,0xf9,0x3d,0x04,0x67,0xf9,0x78,0x06, 0x25,0xfe,0xb0,0x09,0xa0,0xfd,0xa4,0x0a, // 4016
0xa2,0x05,0x84,0xff,0xe3,0xf5,0xb4,0xf7, 0x5d,0xf5,0x2a,0x01,0x70,0x01,0x8c,0x01, // 4032
0x84,0xfc,0xb0,0x03,0xae,0x0b,0x54,0x03, 0x29,0xf9,0x92,0xfd,0x9e,0x0e,0xc5,0xfc, // 4048
0x6d,0xfd,0x5a,0x0b,0x5e,0x03,0x84,0xf8, 0xe9,0xf4,0xb5,0xf7,0x89,0xf8,0xf4,0xfd, // 4064
0xcb,0x02,0xdb,0x0a,0x5a,0xf5,0x8b,0xf9, 0x88,0x02,0x47,0xf9,0x6e,0x05,0x02,0x0b, // 4080
0x85,0x05,0x24,0xe3,0xcd,0x02,0x08,0xfb, 0x12,0x0b,0x91,0x07,0x38,0x02,0x28,0xfc, // 4096
0x3e,0xfe,0x54,0xf7,0xcb,0xfb,0xe6,0xf8, 0x39,0x0b,0x64,0x04,0xb6,0xf5,0xf6,0xf9, // 4112
0xaf,0xf3,0x79,0xfb,0xa3,0x03,0x3b,0x05, 0x0a,0xf1,0xeb,0xfa,0xfe,0xfc,0x12,0x10, // 4128
0x7b,0x08,0x75,0xf0,0x31,0x02,0x6f,0x0a, 0x67,0xfb,0x31,0xf7,0x0c,0x06,0xf3,0x02, // 4144
0x62,0x00,0x4e,0x06,0x1d,0xff,0xbd,0x0b, 0x19,0x02,0x25,0x05,0x8d,0xfd,0xb1,0xf9, // 4160
0x7b,0xfe,0x60,0x0a,0x4d,0x03,0x06,0x02, 0x87,0xff,0xc5,0xf9,0xd0,0xff,0xd3,0xfe, // 4176
0xa2,0xfe,0x22,0x08,0xb5,0x00,0xa9,0xfb, 0x59,0x03,0xd6,0xfa,0x2d,0x05,0xaf,0xfc, // 4192
0x63,0xfb,0x80,0xfd,0x69,0xfa,0xc5,0x02, 0xa4,0xfd,0xd5,0x02,0x4d,0x01,0x38,0xfd, // 4208
0x4d,0xff,0xc7,0xf1,0x07,0xf7,0x57,0xff, 0xa8,0x06,0x26,0xfd,0x75,0xf8,0xba,0x05, // 4224
0x32,0xfa,0x20,0xfb,0x95,0x06,0x50,0xf6, 0x90,0x06,0x48,0xf7,0x01,0xf4,0xe5,0x06, // 4240
0xd7,0xf9,0x10,0xf6,0xbc,0xf8,0xd6,0xff, 0x8e,0xef,0xa1,0x02,0x64,0xfc,0xaf,0x16, // 4256
0x48,0x09,0xab,0x00,0x9b,0xfe,0xd5,0x0b, 0xa0,0xff,0x7a,0xfc,0xe3,0x03,0x06,0xfe, // 4272
0x71,0x02,0xcc,0x05,0xbf,0xf8,0x3d,0x07, 0xb7,0xff,0x25,0x01,0x2d,0xfe,0x0c,0x06, // 4288
0x57,0x0e,0xf7,0xfa,0x67,0x02,0x45,0xff, 0xa1,0xff,0x81,0xfe,0x3f,0x0a,0xc2,0xfc, // 4304
0xe2,0xf9,0xb9,0x05,0x59,0xfc,0x01,0xfc, 0x93,0xf7,0x25,0xfa,0x0e,0x00,0x81,0xff, // 4320
0x54,0xf9,0xa5,0xfc,0x0f,0xf2,0x99,0xfd, 0xfb,0x09,0xbe,0xfa,0x33,0xfe,0x97,0xfb, // 4336
0x59,0x02,0xd4,0xff,0xcd,0xfa,0x48,0xff, 0x11,0x01,0x92,0x03,0xe0,0xfc,0x8f,0xf3, // 4352
0x80,0x07,0xdb,0x03,0x95,0xfa,0x7f,0x08, 0x88,0xfe,0xdc,0xf9,0xa2,0x0b,0x96,0x05, // 4368
0x7b,0xf9,0x24,0xfd,0x2a,0x01,0x31,0xff, 0x48,0xfe,0xe6,0xfa,0x25,0xf2,0x75,0xfa, // 4384
0x4e,0x04,0xeb,0x0b,0xb1,0x03,0xc0,0xf4, 0x4d,0x01,0x80,0xf9,0x63,0xfb,0x82,0x01, // 4400
0x93,0xfd,0x11,0xfc,0x5c,0x0d,0x7d,0xfe, 0x17,0xfd,0xa6,0xf7,0xa6,0x03,0xcb,0xff, // 4416
0x9e,0x01,0x3f,0x05,0x09,0xfe,0x95,0xfe, 0xe1,0xf7,0x24,0x00,0xa5,0xf4,0x0d,0xf5, // 4432
0xe9,0x06,0xa1,0xfe,0xa2,0x02,0xc6,0xff, 0xdf,0xf8,0x36,0x05,0x11,0x0b,0xea,0xf5, // 4448
0x2c,0x13,0x81,0x00,0xfa,0x00,0x68,0xff, 0xa3,0xfd,0x66,0xf5,0xad,0x04,0x59,0xf9, // 4464
0x92,0x05,0xe6,0xf8,0x1b,0x04,0x48,0x01, 0xaa,0x0c,0x43,0xfe,0xd6,0x03,0x7a,0x05, // 4480
0x8a,0xf6,0xc1,0x06,0x16,0x02,0xd6,0xec, 0xb8,0xfa,0xdd,0x00,0xf8,0x04,0x6a,0x00, // 4496
0xa9,0xfc,0xe2,0x01,0xc6,0xf7,0xa4,0x09, 0xc5,0xfb,0xb8,0x03,0x50,0xfc,0xd8,0x09, // 4512
0x4b,0xfe,0x07,0xf9,0x49,0xf4,0xbd,0x09, 0x14,0x09,0xbd,0x02,0x9f,0x00,0x66,0x00, // 4528
0x3f,0x00,0x17,0xf8,0x5e,0xfa,0x90,0x04, 0x0c,0x0a,0x56,0xfe,0x35,0x0e,0xcf,0x0c, // 4544
0x3d,0xf0,0x97,0x00,0x07,0xfb,0x9b,0xfa, 0xf7,0x02,0xae,0xf7,0x0e,0xfa,0xe3,0x00, // 4560
0xf4,0xff,0xaf,0x05,0x3b,0x03,0x45,0x08, 0x23,0x09,0xf5,0xfa,0xcc,0x00,0x70,0x0b, // 4576
0x7e,0xf4,0x1f,0x05,0x4b,0xfd,0xca,0x04, 0x06,0x0d,0xc5,0x07,0x3d,0xfe,0x7c,0x0a, // 4592
0xca,0xfa,0x78,0x00,0xd5,0x02,0x14,0x03, 0x3f,0x04,0xaa,0xff,0x6f,0xfd,0x48,0x01, // 4608
0x01,0xff,0x47,0xf2,0x1f,0x05,0xb4,0x01, 0x66,0xf3,0x40,0xfc,0x1a,0xf5,0x89,0xfb, // 4624
0xaa,0x09,0xdf,0xf7,0xa3,0xfa,0x47,0xfc, 0x2f,0x02,0x96,0x01,0x59,0xfc,0xb8,0xfd, // 4640
0xc7,0x08,0x3c,0x04,0xc8,0xf3,0x05,0x03, 0xf5,0xfa,0x74,0xff,0xd9,0xf8,0xdb,0xf5, // 4656
0x81,0x03,0xef,0x07,0x19,0x03,0x7f,0x10, 0x38,0x06,0xb9,0x06,0xa1,0xff,0xe2,0x03, // 4672
0xef,0x03,0x7c,0xf8,0x30,0x09,0xf5,0xf7, 0xf6,0x04,0x0f,0x03,0xc0,0xfe,0x45,0x03, // 4688
0xd0,0xf4,0x98,0x03,0x19,0xfc,0x7d,0x03, 0x3c,0x03,0xf2,0xf9,0x05,0x0c,0x46,0x0c, // 4704
0x7f,0xfb,0xea,0xef,0x54,0xfb,0x61,0x01, 0xe2,0xf7,0xe1,0xf8,0x9e,0x02,0xd5,0xff, // 4720
0x23,0xff,0xde,0x02,0xf8,0xfa,0xe2,0xfe, 0x16,0x03,0xb7,0x02,0xd7,0x07,0x9b,0x07, // 4736
0xea,0xf4,0x72,0xfa,0x68,0x00,0x8e,0xef, 0x62,0xfa,0x90,0xf9,0xb4,0x0a,0xfa,0x06, // 4752
0x4f,0xf8,0x4c,0x03,0x6f,0xf7,0xa5,0x05, 0xb4,0xfe,0xe2,0xfa,0xea,0x08,0x9f,0x09, // 4768
0x61,0x0a,0xd8,0x04,0xce,0xfa,0x15,0x0b, 0x44,0xfe,0xbb,0x01,0x72,0xfb,0xdc,0x01, // 4784
0x21,0x06,0x87,0xfa,0x36,0x03,0x55,0xf8, 0xac,0xfa,0xe6,0xf9,0xb1,0xfd,0x2f,0xfa, // 4800
0xe8,0xff,0xf3,0xfd,0xad,0x06,0xcb,0xf9, 0x53,0xf8,0x29,0x05,0x21,0x08,0xcf,0xfe, // 4816
0x61,0xf8,0xfa,0xf8,0x5e,0xfe,0x8c,0xfa, 0x68,0x00,0x69,0x03,0xba,0xf3,0x28,0xfa, // 4832
0x8c,0xf8,0xb1,0x06,0x55,0x06,0x2c,0xfa, 0x43,0x05,0x60,0x01,0x9a,0x06,0xed,0xf9, // 4848
0x05,0xf9,0x16,0xfb,0x3d,0xfd,0x14,0x06, 0x4c,0xf8,0xf4,0xfd,0xad,0xfe,0xf2,0x00, // 4864
0x35,0xfc,0x5f,0xfc,0x5e,0x01,0xd6,0xfe, 0x4d,0xfb,0x9b,0x00,0x98,0x01,0x81,0x02, // 4880
0xdb,0xfc,0x43,0xfd,0x64,0x01,0xc8,0xfb, 0xe8,0xfd,0xa0,0xf9,0xd2,0xff,0x3d,0x04, // 4896
0x5f,0x03,0x2e,0x04,0x55,0xf8,0x0d,0xff, 0x1f,0xfe,0xba,0xfa,0xbd,0xff,0x81,0xfc, // 4912
0x69,0xfc,0xfb,0xfe,0x9b,0x00,0x53,0xff, 0x2b,0x03,0x5f,0x03,0xd3,0xf7,0xad,0xf6, // 4928
0x23,0x09,0x2b,0xf4,0x02,0xfb,0xfa,0xfb, 0x8f,0xf2,0xd2,0xe9,0xfb,0x04,0xbf,0xf6, // 4944
0x31,0x07,0x9f,0xf6,0x98,0x02,0x7b,0xf9, 0x7a,0x05,0xe0,0x07,0xfc,0x04,0x3b,0xfe, // 4960
0x89,0xff,0x28,0xfd,0xc6,0x00,0x4a,0x07, 0xc9,0xff,0xe2,0xea,0xc7,0xfc,0xed,0x01, // 4976
0xf4,0x04,0x16,0xfa,0x26,0x06,0x89,0x06, 0xf4,0xfc,0x65,0x05,0xbe,0x09,0x48,0xff, // 4992
0x1c,0xf4,0x9d,0xfe,0xe0,0xfb,0xb9,0x0a, 0x14,0xfb,0x75,0xf1,0x46,0x0f,0x44,0x06, // 5008
0x66,0x02,0x5e,0x0a,0xb8,0x08,0x6a,0xfe, 0x33,0xfc,0xdd,0x01,0x81,0xf0,0x5f,0xfe, // 5024
0xfe,0xfb,0x18,0x0f,0x9d,0xfa,0x19,0x01, 0x60,0xfb,0xe5,0x03,0xaf,0xfa,0x97,0x08, // 5040
0xec,0x07,0x32,0x03,0xcf,0xfe,0xc4,0xf7, 0x52,0xf9,0x89,0xfe,0x8f,0x06,0x3a,0xfc, // 5056
0x58,0x01,0xb6,0xfa,0xb6,0xf8,0x84,0x01, 0xca,0xfe,0x77,0xfb,0x97,0xfc,0x7d,0xfc, // 5072
0xd2,0xff,0x4e,0x02,0x3e,0x03,0xaa,0x02, 0xe0,0x01,0x04,0xfa,0x73,0xfc,0x4e,0x01, // 5088
0x6d,0xfb,0x1e,0xfb,0x50,0xff,0xd2,0x05, 0xb6,0xfd,0xab,0xfa,0x63,0x05,0x39,0x00, // 5104
0x85,0xfa,0x32,0xfb,0xa1,0x01,0x7d,0x03, 0x3a,0x06,0xdd,0xfa,0x2d,0xfd,0x99,0x06, // 5120
0xc0,0xfe,0x6e,0xf9,0x5f,0x07,0x0c,0xf9, 0x58,0xf8,0x41,0xff,0xd8,0xfd,0x00,0x04, // 5136
0xf8,0xfb,0xfb,0xf9,0x0d,0xfb,0x6e,0xf9, 0x26,0xfa,0xd4,0x00,0x83,0xfa,0x0e,0x00, // 5152
0x42,0xff,0xb4,0xfc,0xbc,0x00,0xd2,0xfd, 0xbd,0x05,0x0c,0x01,0x7a,0x06,0xce,0x03, // 5168
0x44,0x06,0xa7,0xf3,0x45,0x02,0x4b,0x03, 0x9e,0xff,0xb0,0x05,0x4c,0x03,0xa3,0x06, // 5184
0x1d,0xff,0xc2,0x00,0xbd,0xfc,0x5f,0xfd, 0xc5,0xfe,0xcd,0x04,0xfa,0x03,0xee,0x03, // 5200
0x3a,0x06,0xea,0x04,0x63,0x06,0x05,0x0b, 0xa6,0x04,0xb3,0xf5,0x38,0xf9,0x6d,0x12, // 5216
0x90,0xfa,0xdb,0xff,0x4a,0xf3,0x06,0x01, 0x5d,0xf8,0x90,0x06,0xc1,0x04,0x50,0x05, // 5232
0xb1,0xfe,0x38,0xf0,0xca,0xfd,0x21,0xfd, 0x79,0x0a,0x09,0x02,0x72,0xff,0x1f,0x08, // 5248
0x08,0xfb,0x65,0xfb,0x92,0xff,0xf9,0x0a, 0x66,0x04,0xef,0x02,0x30,0x14,0x43,0xf8, // 5264
0xac,0xf8,0x86,0x00,0xc4,0xf3,0x5d,0x00, 0xe2,0xef,0x6b,0x04,0xb0,0xfd,0x5c,0x0c, // 5280
0x53,0xfc,0xe8,0xf3,0x44,0xfb,0xb1,0x05, 0x11,0x07,0x62,0xf8,0x5a,0xff,0x1f,0x0d, // 5296
0x97,0xf9,0xaa,0x05,0x48,0xfd,0x77,0xf8, 0x39,0xfe,0x05,0xf9,0x6e,0xf7,0x91,0x01, // 5312
0x75,0x04,0x1b,0xff,0x34,0x00,0xb4,0x02, 0xce,0xfa,0xa8,0x03,0x06,0xf5,0xe2,0xfb, // 5328
0x8b,0xfe,0x07,0xf7,0x6e,0x00,0x99,0xfc, 0x4f,0x06,0x0f,0x01,0x3b,0xfc,0x2a,0xf9, // 5344
0x0d,0x04,0xc8,0xf9,0x3a,0xfe,0x07,0xf7, 0xa7,0xf5,0x64,0x04,0x9d,0xff,0xef,0x02, // 5360
0x52,0xfe,0x9b,0x03,0x3b,0x02,0x59,0xf9, 0xcf,0x00,0x2c,0x01,0x9c,0x03,0x57,0x06, // 5376
0xb1,0xf1,0x98,0x01,0x93,0x06,0x5a,0xf6, 0xc8,0xfc,0x15,0xfc,0x05,0x0d,0xd3,0xf7, // 5392
0x57,0xf2,0xd0,0x02,0x7e,0xfe,0x61,0x06, 0xa1,0xfb,0xaa,0xf3,0x54,0x06,0x5f,0x13, // 5408
0x3c,0x0c,0x5a,0x04,0xe0,0xf2,0xe8,0x06, 0x3e,0x03,0x4b,0xff,0x0f,0xfe,0xa1,0xfa, // 5424
0xb6,0xff,0x2a,0xfe,0x7b,0x0e,0x02,0x04, 0x68,0xfe,0x9b,0x02,0x00,0xf0,0x31,0x02, // 5440
0x68,0x05,0x1f,0x09,0xd8,0xfd,0xdc,0xfe, 0x80,0xfb,0xbb,0x00,0x19,0xf4,0xbe,0xfc, // 5456
0xee,0xff,0xf1,0x03,0xcc,0x01,0xae,0xfe, 0xad,0xfa,0xc8,0xf9,0x3a,0x08,0xdc,0xf7, // 5472
0x77,0x07,0xbe,0x04,0x38,0xfc,0xf6,0x04, 0x1e,0x00,0x9c,0xf8,0x58,0xf9,0x01,0x02, // 5488
0xc2,0x01,0x79,0x03,0x11,0xfb,0xb9,0xf9, 0x84,0x04,0xd3,0xfc,0x7c,0xfe,0x65,0x02, // 5504
0xa9,0xf6,0x6c,0x09,0x6f,0xff,0x50,0xfc, 0x55,0x06,0xde,0xf4,0xa1,0x05,0xc0,0x03, // 5520
0x99,0xff,0x4b,0x0c,0x7e,0x02,0x4d,0xfe, 0x22,0x01,0x29,0xf6,0x4f,0x01,0x6d,0x03, // 5536
0xaf,0x01,0xbc,0xff,0x88,0xfa,0x79,0x09, 0xf1,0x02,0xd9,0xfe,0x87,0xfc,0x21,0xff, // 5552
0x7d,0xfd,0x38,0xf9,0xfa,0x03,0x0b,0x01, 0x2d,0xf6,0x30,0x03,0xc6,0xfd,0x55,0xfe, // 5568
0x96,0x00,0x8e,0xf6,0xfc,0xfc,0xa1,0xff, 0xcd,0xf4,0xe8,0xed,0xc3,0xf8,0x00,0x08, // 5584
0x6d,0x06,0x95,0xf7,0x7e,0xfc,0x57,0xf6, 0xa2,0xfe,0x08,0x06,0x8d,0xff,0x45,0x02, // 5600
0x6a,0x11,0x95,0xf5,0x12,0x05,0x6b,0x02, 0x9e,0x00,0xf1,0x00,0x87,0x00,0x7d,0xfa, // 5616
0x26,0xfc,0xa9,0x0a,0x02,0x09,0x96,0xfe, 0xea,0x08,0xb4,0xfb,0xdd,0xff,0x03,0xf7, // 5632
0xbd,0x07,0x39,0xfc,0xf4,0x01,0x54,0x0a, 0x67,0xfa,0x68,0xfd,0x0f,0x03,0xc6,0x01, // 5648
0x69,0x03,0xf9,0x05,0xf7,0xf7,0x0c,0xfe, 0x64,0xff,0x58,0x08,0x1f,0x03,0x6c,0x00, // 5664
0x26,0x08,0x56,0x00,0xf1,0x07,0x1c,0x05, 0x11,0xff,0xa8,0xfa,0xdb,0x04,0x16,0xff, // 5680
0x9a,0xfe,0x7f,0xf5,0x03,0x06,0x49,0xfc, 0x41,0x01,0x07,0x06,0xea,0x01,0xc9,0xf8, // 5696
0x1f,0x03,0x05,0x0a,0xa6,0xfa,0xcb,0x06, 0x0f,0xff,0x6a,0xfd,0x4a,0xff,0x93,0x05, // 5712
0x72,0xfc,0xf0,0x08,0xe7,0xfd,0x0c,0x00, 0xd9,0x03,0x58,0x03,0x18,0xfa,0x48,0x07, // 5728
0xf0,0x09,0xbb,0xf7,0x56,0xfb,0x52,0x08, 0x5d,0xff,0x39,0xfb,0xc8,0xfa,0x48,0x08, // 5744
0xb0,0x00,0xb6,0xf8,0x78,0x07,0x6e,0x00, 0x13,0xfb,0xdd,0x04,0x44,0x08,0xbc,0x01, // 5760
0xa6,0xfe,0x8e,0x04,0x2a,0x06,0x97,0xf6, 0x7f,0xf3,0x1e,0xf9,0x15,0xef,0x72,0xfe, // 5776
0x74,0x04,0x89,0xf3,0xff,0x06,0xa3,0xfc, 0x0b,0x03,0xc3,0x06,0x04,0x09,0x61,0xfa, // 5792
0x27,0x0a,0xcc,0x04,0xcc,0x01,0x2a,0x08, 0x3a,0x01,0x92,0x05,0x80,0x01,0x12,0x00, // 5808
0x5f,0x08,0x8f,0xfe,0x81,0x08,0xfb,0xf3, 0x23,0x06,0x4e,0x01,0xdb,0x09,0x30,0xfa, // 5824
0x4b,0xf6,0xf1,0x03,0x94,0x01,0xa9,0xff, 0x42,0xfb,0x7c,0x05,0xe3,0xf9,0xf9,0x06, // 5840
0x83,0xf9,0xd9,0x00,0xad,0xf8,0x48,0x01, 0xeb,0x03,0xc0,0x07,0xac,0xf8,0x0a,0xff, // 5856
0x60,0x0c,0xf4,0xff,0x11,0xf9,0x1f,0xfb, 0xa2,0xfd,0x28,0xff,0x4c,0x00,0xc3,0x00, // 5872
0x05,0xfa,0xf5,0x02,0xe2,0x04,0x32,0x00, 0xaf,0xfd,0x67,0x00,0x13,0x05,0x19,0xf8, // 5888
0x63,0xfc,0x07,0x03,0xcd,0xf8,0x4d,0xf9, 0x6e,0x09,0x83,0xf9,0xe1,0xfe,0xe4,0x04, // 5904
0x11,0xf4,0xec,0x00,0x73,0xf4,0x57,0xf7, 0xdf,0x05,0x4e,0x05,0x58,0x04,0x61,0xff, // 5920
0x15,0x02,0xdb,0xfb,0x72,0xf8,0x4d,0xfb, 0xc4,0xf4,0x11,0x06,0x05,0x07,0xe2,0xf4, // 5936
0xa7,0xfd,0xd2,0xf8,0xcb,0x05,0x09,0x07, 0x2b,0x03,0xb9,0xfc,0xaf,0xfa,0xa4,0xfa, // 5952
0x76,0x02,0xe2,0xfc,0x07,0x07,0xb8,0x02, 0x06,0x04,0x6f,0xf9,0x70,0x05,0xf1,0xff, // 5968
0x9d,0x00,0x27,0xf8,0x10,0x06,0xf5,0x04, 0x6a,0xf7,0xea,0xff,0x16,0x04,0x46,0x02, // 5984
0x51,0xfc,0x3b,0x01,0xff,0xf6,0xab,0xff, 0x3d,0xfe,0x9c,0xfb,0x60,0xff,0x9d,0x00, // 6000
0xc8,0x04,0x8a,0xf9,0x57,0xf8,0x65,0xfc, 0xd6,0xf8,0x8c,0xfe,0xec,0xfe,0x6e,0x04, // 6016
0xfe,0xfd,0x1f,0x09,0xd9,0xf8,0xd3,0x00, 0x5a,0x01,0xb1,0xf9,0xbe,0x00,0xe7,0x03, // 6032
0x3a,0xfd,0x7e,0x05,0x87,0x0b,0x49,0xfc, 0x43,0xfc,0xd9,0xf7,0x5b,0xfe,0xdb,0xfe, // 6048
0x3d,0x08,0x62,0xf7,0x10,0xfe,0xae,0x03, 0x39,0xf6,0xf3,0xf7,0x21,0xff,0x48,0xfa, // 6064
0x9b,0xfb,0x81,0xfd,0x75,0x04,0xe3,0xef, 0xd4,0xf7,0x4b,0x03,0x01,0xfc,0x10,0x03, // 6080
0xa3,0xf7,0x80,0xfb,0x6c,0xff,0xa1,0xf8, 0x5c,0xf3,0xb8,0xf2,0x47,0xf9,0x99,0xf8, // 6096
0x86,0xfe,0xec,0xf5,0x68,0xfe,0xb4,0xf7, 0x7a,0xfe,0xa2,0x03,0x92,0xff,0xa6,0xf7, // 6112
0x8f,0x0a,0x9f,0xff,0x7a,0x04,0x94,0x07, 0x21,0xfa,0x23,0xf5,0x93,0x05,0x00,0x00, // 6128
0x04,0x03,0xa3,0x00,0x85,0xf8,0x02,0xfd, 0x1c,0x01,0xb9,0x06,0x19,0xff,0x7a,0x01, // 6144
0x1d,0x02,0x6e,0x00,0x5f,0x04,0x33,0x01, 0x71,0xfc,0x99,0x06,0xef,0xfc,0x76,0xfa, // 6160
0x46,0xf8,0x4a,0x00,0xe8,0x07,0x4e,0x01, 0x53,0xfa,0x51,0xfc,0x9f,0xfc,0x4f,0xfd, // 6176
0xa0,0xfe,0x22,0xfb,0xe7,0xf7,0xc5,0xf9, 0x9f,0xfb,0xdb,0xf8,0xa6,0x05,0xac,0xf8, // 6192
0x96,0x05,0x3a,0xfd,0x38,0xfd,0x08,0x05, 0xe7,0xfb,0x4e,0x05,0xaf,0xfb,0x72,0x04, // 6208
0xfa,0xfb,0x80,0xf4,0xc2,0x04,0xc3,0x00, 0xef,0xf8,0xf7,0xfb,0x62,0x07,0x01,0x07, // 6224
0xcd,0xf7,0x8f,0xfc,0xac,0xfe,0xc6,0xfc, 0x3d,0xfd,0x7a,0xf9,0x61,0x04,0x57,0xf8, // 6240
0x03,0xfc,0x53,0xf7,0xbd,0xf5,0xfd,0xf8, 0xd8,0xfb,0x47,0xf8,0x27,0x00,0xc7,0xfc, // 6256
0xbb,0xfc,0xfc,0x01,0x3b,0x02,0xe3,0x01, 0xa4,0xf8,0xca,0x01,0x3d,0x09,0xb2,0x01, // 6272
0x7e,0xfc,0xcd,0x03,0xf4,0x05,0x46,0x19, 0x84,0x06,0x7b,0x00,0x83,0x05,0x11,0x08, // 6288
0xdc,0xfb,0xaf,0x06,0xc6,0x10,0xd3,0xfe, 0x78,0xf2,0x01,0xff,0x10,0xf6,0xe5,0x03, // 6304
0x2a,0x03,0x41,0x0a,0x76,0x04,0x54,0xf7, 0x09,0xfb,0xd0,0xfb,0x25,0x01,0x83,0x0a, // 6320
0xb3,0x02,0x52,0xfc,0xb6,0xf8,0x92,0xff, 0xb8,0xf9,0x84,0xfc,0x88,0x00,0xf7,0xfc, // 6336
0x54,0xfc,0xe6,0xfd,0x57,0x01,0x1d,0xfe, 0x3b,0xff,0x43,0x01,0x36,0x00,0x1f,0xfe, // 6352
0x02,0x00,0xeb,0xfd,0x37,0xfb,0xb8,0x01, 0xfd,0xf9,0xa2,0xff,0x5f,0x01,0x9b,0x04, // 6368
0xb0,0x01,0xa0,0xfa,0x5f,0x08,0x7f,0x05, 0xbb,0x08,0x54,0xff,0x80,0x05,0x09,0x06, // 6384
0x36,0x05,0x02,0xf1,0xc3,0xee,0x95,0xf6, 0xc3,0x00,0xa1,0xfe,0x30,0x0b,0x64,0xfe, // 6400
0xff,0xf1,0x6f,0xfd,0xda,0xee,0xa2,0xfd, 0xc4,0xf3,0x41,0xf9,0x81,0xf7,0x21,0xfd, // 6416
0x7f,0xf6,0x60,0xfc,0xb6,0x05,0x18,0xf3, 0x8e,0xf6,0xb6,0xf3,0x55,0xff,0x17,0xf9, // 6432
0xce,0xef,0xb8,0xf3,0x71,0x05,0x25,0x02, 0x1a,0xfb,0x83,0xf7,0xeb,0xf2,0xb5,0xf9, // 6448
0x60,0x01,0xdb,0xff,0xdc,0xfd,0xc5,0xf8, 0xac,0x04,0x14,0xfe,0x18,0xf3,0x97,0xff, // 6464
0xa2,0xfc,0x1b,0x02,0x3b,0xf8,0x7f,0xf8, 0x57,0xfb,0x44,0xfd,0x07,0x03,0x38,0xfd, // 6480
0x5c,0xf9,0xe6,0xfe,0x90,0xf0,0x74,0xfc, 0xde,0x0a,0x48,0xf3,0x6e,0xff,0xa8,0xf9, // 6496
0xc6,0xf6,0xa4,0xf6,0xbb,0xf9,0x4c,0xfa, 0x16,0xfc,0x91,0xfa,0x07,0xf6,0x71,0xf4, // 6512
0x43,0x4d,0x44,0x00,0x20,0x07,0x80,0x00, 0x70,0x19,0x00,0x00,0x10,0x04,0x00,0x00, // 6528
0x01,0x01,0x00,0x00,0x0a,0x00,0x00,0x00, 0x00,0x00,0x00,0x00,0x00,0x00,0x00,0x00, // 6544
0x01,0x00,0x40,0x00,0x01,0x00,0x01,0x00, 0x40,0x00,0x01,0x00,0x00,0x00,0x00,0x00, // 6560
0x0a,0x00,0xff,0xff,0xff,0xff,0xff,0xff, 0x00,0x00,0x00,0x00,0x00,0x00,0x00,0x00, // 6576
0x00,0x00,0x00,0x00,0x00,0x00,0x00,0x00, 0x00,0x00,0x00,0x00,0x00,0x00,0x00,0x00, // 6592
0x00,0x00,0x00,0x00,0x00,0x00,0x00,0x00, 0x00,0x00,0x00,0x00,0x00,0x00,0x00,0x00, // 6608
0x00,0x00,0x00,0x00,0x00,0x00,0x00,0x00, 0x00,0x00,0x00,0x00,0x00,0x00,0x00,0x00, // 6624
0x00,0x00,0x00,0x00,0x00,0x00,0x00,0x00, 0x00,0x00,0x00,0x00,0x00,0x00,0x00,0x00, // 6640
0x43,0x4d,0x44,0x00,0x20,0x08,0x00,0x00, 0xf0,0x19,0x00,0x00,0x10,0x02,0x00,0x00, // 6656
0x01,0x00,0x00,0x04,0x0a,0x0c,0x07,0x0c, 0x00,0x00,0x00,0x00,0x00,0x00,0x00,0x00, // 6672
0x01,0x00,0x40,0x00,0x01,0x00,0x01,0x00, 0x80,0x00,0x01,0x00,0x00,0x00,0x00,0x00, // 6688
0x0a,0x00,0x0f,0xff,0xff,0xff,0xff,0xff, 0x00,0x00,0x01,0x00,0x00,0x01,0x00,0x00, // 6704
0x00,0x01,0x02,0x00,0x80,0x00,0x00,0x00, 0x00,0x00,0x00,0x00,0x00,0x00,0x00,0x00, // 6720
0x00,0x00,0x00,0x00,0x00,0x00,0x00,0x00, 0x00,0x00,0x00,0x00,0x00,0x00,0x00,0x00, // 6736
0x00,0x00,0x00,0x00,0x00,0x00,0x00,0x00, 0x00,0x00,0x00,0x00,0x00,0x00,0x00,0x00, // 6752
0x00,0x00,0x00,0x00,0x00,0x00,0x00,0x00, 0x00,0x40,0x00,0x00,0x00,0x01,0x00,0x00, // 6768
0x0d,0x02,0xf0,0x01,0x54,0x01,0x53,0x00, 0xea,0x00,0x08,0x01,0x3f,0x01,0x9a,0xfd, // 6784
0x68,0xfe,0xf0,0xff,0xaa,0x00,0xcc,0xfe, 0xde,0xff,0x5a,0xff,0x6b,0xfc,0x22,0xfe, // 6800
0x92,0xfe,0x11,0xfe,0xe4,0xfe,0x63,0xfb, 0xeb,0xfd,0x20,0x01,0xe2,0x01,0x8b,0xfe, // 6816
0x63,0x00,0xb8,0x00,0xcf,0xfe,0x6c,0xff, 0x04,0x02,0xe3,0x01,0xb9,0xfe,0xd3,0xff, // 6832
0x5c,0xfd,0xd8,0xfd,0x8b,0x00,0xc5,0x00, 0x59,0xfa,0x61,0xff,0xa2,0x00,0xfd,0xfd, // 6848
0x97,0xff,0x09,0xfd,0x9e,0x00,0xb7,0xfe, 0x1b,0x02,0x46,0xff,0xfa,0x00,0x50,0xfe, // 6864
0x44,0xfd,0x96,0xfc,0xfd,0x00,0x4c,0x00, 0xd4,0xfe,0x63,0xff,0x0f,0x00,0xd8,0xfc, // 6880
0xf1,0xfd,0xcd,0xff,0xfa,0xff,0xdb,0x01, 0xac,0xfd,0xb8,0xfd,0xe4,0xfd,0x84,0xff, // 6896
0x09,0xfe,0x64,0x00,0x18,0xfd,0x70,0xff, 0x28,0xfd,0x93,0x02,0x44,0xff,0x5d,0xfe, // 6912
0xb8,0xfd,0x3e,0x00,0xa3,0xfe,0x34,0xfe, 0xae,0xff,0x2c,0xfd,0x40,0xfd,0x01,0xff, // 6928
0x9c,0x01,0x2b,0xff,0x97,0x00,0xa3,0xff, 0xbf,0x01,0x54,0x02,0x77,0xff,0x86,0x02, // 6944
0x01,0xff,0x82,0xfe,0x0a,0xfe,0x0e,0xfe, 0x8a,0x01,0x5b,0x00,0x50,0x02,0x55,0x02, // 6960
0xad,0x02,0x9f,0x00,0x1a,0xfd,0xd4,0xfd, 0xff,0x01,0xd9,0xfd,0x02,0x02,0x51,0xff, // 6976
0xd3,0xfe,0xe4,0xfd,0xb8,0xfd,0x43,0xff, 0x22,0x00,0xcb,0x00,0x95,0xfe,0x94,0x00, // 6992
0x80,0x02,0xe2,0xff,0xeb,0xfd,0x61,0xff, 0xe7,0xfe,0x88,0x01,0x64,0xff,0x7b,0xfe, // 7008
0x27,0xfe,0x34,0x00,0x3c,0x00,0x08,0xff, 0xb4,0x00,0xf1,0x01,0xba,0x00,0x62,0xfd, // 7024
0x88,0x04,0xe7,0x00,0x29,0x04,0x4c,0x01, 0xf3,0xff,0x7c,0x04,0xc0,0xfe,0x22,0x04, // 7040
0x52,0x03,0xe3,0x02,0xd2,0xff,0xe9,0xfd, 0xee,0xfe,0xda,0xfc,0xff,0x02,0x0e,0xfc, // 7056
0x50,0xfe,0xd0,0x00,0xbe,0x00,0xb1,0xff, 0x59,0xff,0x59,0xfa,0x25,0x04,0x7b,0xfe, // 7072
0xbc,0xfb,0x7d,0x00,0x99,0x03,0x2f,0xff, 0xb4,0x00,0x36,0xff,0xa4,0x01,0xd0,0xfe, // 7088
0x53,0xff,0x45,0xfc,0x5a,0x02,0xbc,0xfe, 0x81,0xfd,0x6e,0x01,0x5b,0x03,0xfa,0xff, // 7104
0xea,0xfe,0xcf,0x01,0x9f,0xfa,0x28,0x01, 0xb3,0xff,0xec,0x01,0x50,0x00,0xf5,0xfe, // 7120
0x87,0x01,0xee,0xfc,0xa1,0xfe,0xb2,0xfd, 0xe8,0xfa,0x7b,0xfd,0xdf,0xfb,0x46,0xf5, // 7136
0x47,0xfd,0xf7,0x01,0xc3,0xfc,0x6d,0xff, 0xfd,0xff,0xed,0xfe,0xef,0xf7,0x06,0x00, // 7152
0x3f,0xf9,0x99,0x00,0xa8,0xfe,0x50,0x03, 0x34,0x01,0x4d,0xfc,0xd9,0x03,0x17,0xf9, // 7168
0xe3,0xfc,0xf8,0xfa,0x16,0xfe,0x59,0xff, 0x1b,0xfe,0xed,0xfa,0x6f,0xff,0x4e,0x01, // 7184
0x7f,0x04,0xd1,0x01,0x75,0x06,0xc8,0xf9, 0x17,0x02,0x53,0x05,0xe6,0x01,0x4c,0xfe, // 7200
0x9b,0xfc,0xaa,0xfe,0x24,0x02,0x80,0x05, 0xca,0xfe,0xf8,0x02,0x2c,0xfc,0xb2,0x00, // 7216
0xb0,0x04,0x4f,0x00,0x04,0x00,0x1a,0x00, 0xd0,0xfb,0x68,0xfb,0x51,0x03,0x34,0xff, // 7232
0x23,0x00,0xe9,0xfd,0xcd,0x02,0xbf,0xff, 0xb5,0xfd,0x3a,0x04,0x73,0x00,0xcb,0xff, // 7248
0xe6,0x02,0xf5,0xfd,0x88,0x02,0xa3,0xfd, 0x01,0xff,0x39,0xfb,0x74,0xfe,0xa2,0xff, // 7264
0x2e,0xfc,0x4a,0xfd,0x0f,0xff,0x99,0xfc, 0x5d,0x00,0x75,0x01,0x0f,0x04,0x15,0x02, // 7280
0xd3,0xfe,0xd2,0xff,0xb7,0xfd,0x33,0x00, 0x42,0xfe,0x5b,0xfe,0xd9,0x00,0xe4,0xfe, // 7296
0x8e,0x01,0x8e,0xff,0x0a,0x01,0x70,0xff, 0x1e,0xfe,0xbb,0x00,0xf5,0xff,0x76,0x03, // 7312
0x9a,0x01,0x2c,0x01,0xc1,0x00,0xed,0xff, 0x0f,0xff,0xb1,0xfb,0x62,0x00,0x23,0xfe, // 7328
0x83,0x05,0x74,0x02,0xcb,0xfd,0xd5,0x04, 0xf6,0xfd,0x19,0xff,0xf3,0x00,0xf7,0xfd, // 7344
0x0f,0xff,0x9c,0x01,0x27,0x01,0xbf,0x00, 0x82,0xfd,0x19,0xfd,0x22,0x03,0x22,0x01, // 7360
0x16,0x01,0xd5,0xff,0x01,0x01,0x84,0xff, 0x3d,0x00,0x80,0x00,0x0e,0xff,0xd6,0xff, // 7376
0x2a,0x02,0xcd,0xfb,0x83,0xfc,0xfe,0xfe, 0x2f,0x01,0x66,0x01,0x3b,0x01,0xb4,0x00, // 7392
0xba,0xfd,0x03,0x00,0x76,0xfe,0xb9,0x01, 0xaf,0x01,0x8b,0xfd,0x0b,0x01,0x98,0xfd, // 7408
0xf6,0xff,0xd7,0x00,0xc2,0x01,0xc8,0xff, 0x63,0x03,0xaa,0x01,0xf0,0xfe,0xac,0x00, // 7424
0xb8,0x01,0x95,0x00,0xe2,0xff,0x1b,0x00, 0xa1,0xfe,0x13,0xff,0x33,0xff,0xc2,0x00, // 7440
0xac,0x02,0xc8,0xfd,0xd1,0xff,0x50,0xfd, 0x50,0xff,0xc5,0xf9,0x5e,0x02,0x61,0xfe, // 7456
0xd4,0xfe,0x11,0x02,0xd9,0x03,0x8e,0xff, 0x44,0x03,0xb1,0xfe,0xb5,0x04,0xed,0xfb, // 7472
0xd0,0x01,0xbd,0xfe,0x91,0x00,0xbf,0x01, 0x6e,0xfa,0x98,0x00,0x8f,0xfe,0x1c,0x02, // 7488
0x37,0x02,0x32,0x02,0x3e,0xf9,0xbe,0xfd, 0x40,0x01,0x40,0x02,0x74,0x02,0x22,0x02, // 7504
0x28,0xff,0x21,0xfd,0x93,0xff,0x8e,0xff, 0x22,0xfc,0x15,0xfe,0xd3,0x00,0xff,0xf7, // 7520
0x42,0xff,0xac,0xff,0xb6,0xfc,0x50,0xff, 0x00,0x01,0x41,0x00,0x8b,0xf4,0x5c,0xfe, // 7536
0xca,0xfe,0x26,0xfe,0x14,0x01,0x54,0x01, 0x51,0x01,0xee,0xff,0x6d,0x02,0xd3,0xff, // 7552
0x75,0x02,0x5b,0xfd,0x97,0xfe,0x68,0xff, 0xb2,0x00,0xbc,0xfd,0x67,0x00,0x09,0x02, // 7568
0x6a,0xfd,0xfd,0xfd,0x49,0xfd,0xad,0xfd, 0xe3,0x01,0x53,0x00,0xd9,0xff,0xf4,0xff, // 7584
0xd8,0xfd,0x3c,0xfd,0x20,0x00,0x2c,0x00, 0xcc,0xfd,0x32,0x02,0x55,0x02,0x1c,0xff, // 7600
0x3d,0xfe,0xcf,0xff,0x89,0xfd,0x1d,0xfd, 0x58,0xfd,0xf7,0xff,0x6a,0xfd,0x86,0x01, // 7616
0x5e,0x01,0x9d,0x02,0xaa,0x00,0xf3,0x01, 0x67,0x00,0x86,0x00,0x3c,0x02,0xc8,0xfe, // 7632
0xb7,0xfe,0x55,0x02,0x3b,0xfd,0x15,0x02, 0x4a,0xfd,0xe7,0x00,0x8d,0xfe,0x4c,0x02, // 7648
0x4c,0x00,0x1d,0x01,0x1a,0xff,0x0f,0x01, 0xff,0xfd,0xdd,0xfd,0x0b,0xfe,0x61,0xfd, // 7664
0xd2,0xff,0x6c,0xfe,0x12,0x01,0x4b,0xff, 0x0e,0x00,0xa4,0x01,0x2f,0x02,0x17,0x01, // 7680
0x47,0x00,0x3d,0x01,0x9f,0xfd,0x15,0xff, 0xd0,0xfd,0xe8,0xfb,0xf8,0x00,0xe7,0xfb, // 7696
0xa6,0xfe,0x87,0x01,0x9f,0xfc,0xe1,0xfe, 0x3d,0xfd,0xd1,0xfe,0x39,0xfd,0x9e,0x01, // 7712
0x8a,0xfc,0x1b,0xfe,0x6c,0xfc,0x40,0x01, 0x60,0x02,0xbc,0x00,0x0d,0x01,0xb3,0xfd, // 7728
0x94,0xfd,0x75,0xfe,0x38,0x01,0x5c,0xfe, 0xdf,0xfd,0x5c,0xfd,0x1c,0xff,0x07,0x01, // 7744
0xf7,0xfe,0x9a,0xff,0x6a,0xfe,0x9a,0x01, 0xde,0x01,0xbb,0xfe,0x6d,0x01,0x5a,0xfd, // 7760
0x95,0x00,0xe4,0x02,0x9e,0xfe,0x59,0x01, 0x55,0x00,0x75,0x01,0x3a,0xfd,0x1a,0xfd, // 7776
0x33,0x01,0x67,0xff,0x95,0xfc,0x28,0xff, 0x14,0x02,0x84,0xfc,0x52,0xfe,0x94,0x00, // 7792
0x1a,0xfd,0x61,0x01,0x3f,0xff,0x59,0x02, 0x50,0xfe,0xe1,0xfe,0x74,0x02,0xdc,0xfd, // 7808
0x4d,0xff,0xf8,0xfe,0xfc,0xff,0xd1,0xfd, 0x85,0xfe,0xb2,0xfc,0xbd,0x00,0xc4,0x02, // 7824
0xd5,0xfc,0xff,0xff,0x72,0x03,0x9f,0xfc, 0x46,0x01,0x9b,0xff,0xa7,0xfe,0x47,0x02, // 7840
0x42,0xff,0x70,0x02,0xf5,0xfd,0x7b,0x03, 0x14,0xff,0xcd,0x04,0x01,0xff,0xf0,0x02, // 7856
0xad,0xff,0xcc,0xfe,0x84,0x00,0xc9,0xfb, 0x6d,0xff,0xfb,0xfa,0x26,0xfd,0xd5,0xfe, // 7872
0xf4,0xff,0x17,0x02,0xf0,0x00,0x6f,0x01, 0x54,0x00,0x07,0xfd,0xb4,0x01,0xe2,0xfd, // 7888
0xf6,0x00,0x16,0x01,0xa7,0x02,0xa1,0xff, 0x9d,0x03,0x1a,0x01,0x11,0xfc,0x78,0x03, // 7904
0x23,0xff,0xa0,0x01,0xe4,0x00,0x1d,0x01, 0xfb,0x00,0x4a,0x00,0x12,0x03,0x3d,0xfe, // 7920
0x68,0xfe,0xdb,0xfe,0xdb,0x00,0x2e,0xff, 0x82,0xfc,0x74,0xfe,0x82,0xfd,0x9c,0x01, // 7936
0x60,0x03,0xa9,0x02,0xce,0xfe,0xab,0x02, 0x12,0xff,0xa2,0x04,0xac,0xff,0x05,0xff, // 7952
0x52,0x03,0x92,0x00,0xa3,0xfc,0x25,0x04, 0xb7,0x01,0x5e,0xff,0xbd,0x02,0x00,0x02, // 7968
0x79,0x03,0x9a,0xfe,0x3b,0xfd,0x6a,0xff, 0xe9,0x01,0x8f,0x01,0x20,0x02,0x83,0x00, // 7984
0x6d,0x03,0x3b,0x02,0x29,0xfb,0x20,0xfc, 0x9e,0x01,0x0b,0x00,0x76,0xff,0x41,0x00, // 8000
0xf3,0x00,0x29,0x03,0x52,0x01,0x3a,0x00, 0xac,0x00,0xca,0xf9,0x51,0x03,0x17,0x01, // 8016
0x20,0x00,0xc8,0x03,0x8a,0x03,0xe7,0x03, 0x0f,0x01,0x2b,0x03,0x8a,0x01,0xd9,0xff, // 8032
0xec,0xfe,0x03,0xfe,0x96,0x02,0xd4,0x04, 0xe6,0xfe,0x90,0x01,0xd2,0x00,0xc5,0xfd, // 8048
0xc3,0xfd,0x45,0x02,0x37,0xfe,0x28,0x01, 0x1a,0x00,0x34,0xff,0x51,0x02,0xfd,0x00, // 8064
0x38,0x02,0xc7,0xff,0x27,0xfe,0xdf,0xff, 0x9f,0x02,0xa5,0x00,0x8e,0x02,0x41,0xfc, // 8080
0xf6,0xfe,0xfc,0x01,0x7c,0xff,0xef,0xfd, 0x0c,0xff,0x03,0x02,0xe0,0xfd,0xcf,0xfe, // 8096
0xa0,0xfd,0x56,0x01,0x6d,0xfd,0x3c,0xfd, 0x9f,0xfd,0x7a,0xfd,0x8c,0xfe,0xa3,0x01, // 8112
0x3f,0x01,0xe7,0xff,0x32,0xfd,0x2f,0x02, 0xa5,0x02,0x0f,0xfd,0xdf,0xff,0xb1,0xfe, // 8128
0x2a,0x01,0x5c,0xff,0x11,0xff,0x10,0x01, 0xb8,0xfd,0x71,0xfe,0x27,0xfe,0x27,0xfe, // 8144
0xd4,0x01,0x1e,0xfd,0x27,0xff,0xe1,0x01, 0x12,0xfe,0x5a,0x01,0xf7,0xff,0x60,0xfe, // 8160
0x03,0xfd,0x5e,0xfe,0x80,0x01,0x21,0x01, 0x69,0x00,0xac,0x01,0x65,0xff,0x5f,0x01, // 8176
0xa5,0xfd,0xad,0xff,0xbf,0xfd,0x84,0x02, 0xd9,0xff,0x30,0xfe,0x83,0x04,0x71,0xfd, // 8192
0x68,0x00,0xb8,0xff,0x54,0x01,0x4b,0x02, 0xf4,0x00,0x9e,0x00,0xd1,0x00,0xb8,0x01, // 8208
0x2d,0xfe,0xce,0x01,0xd1,0x02,0x54,0xfd, 0xd8,0xfd,0xa7,0x00,0x01,0x02,0x8e,0xfe, // 8224
0xae,0xfc,0xa9,0x00,0x9a,0x00,0x5f,0x03, 0xe1,0x02,0x92,0xfe,0x9c,0x00,0x09,0x00, // 8240
0x1c,0x00,0xfd,0xfc,0x95,0xfc,0x82,0x01, 0x6e,0xff,0xa5,0xfd,0x30,0xfe,0x40,0x01, // 8256
0x79,0xfe,0x1c,0xfb,0x5f,0xff,0xe5,0xfe, 0x13,0x01,0xa9,0xff,0xf0,0xfe,0xc9,0x01, // 8272
0x84,0x03,0x0d,0x00,0xe9,0x02,0x73,0xfb, 0xf8,0xff,0x2a,0x01,0x52,0xfe,0x6a,0xff, // 8288
0xc8,0xfc,0x9b,0xfd,0x88,0x01,0xd0,0xfd, 0x9f,0x01,0x85,0x00,0xb0,0x01,0xf8,0x02, // 8304
0x78,0x02,0x9f,0xfe,0xfd,0x01,0x41,0xff, 0x18,0xfd,0xe3,0x01,0x29,0x00,0x3e,0x01, // 8320
0x73,0xfe,0x69,0x01,0xf5,0xff,0x31,0xff, 0xed,0xff,0x50,0x01,0xe7,0xff,0xab,0x01, // 8336
0xaf,0xfd,0xbb,0x01,0x8f,0xfe,0x61,0xfe, 0x66,0x00,0x71,0x00,0x84,0x01,0xce,0x01, // 8352
0x86,0x00,0xe0,0xfc,0x34,0x00,0xe1,0xfe, 0x9b,0x00,0xef,0xff,0x95,0xfd,0x4d,0xfe, // 8368
0xe1,0xff,0x7c,0xfe,0x59,0xfe,0x90,0xfe, 0x0e,0x00,0xeb,0xfe,0x10,0xfe,0x37,0x01, // 8384
0x2c,0xff,0x37,0x01,0xe8,0xfc,0x0f,0x01, 0xac,0xfd,0x38,0xfe,0xeb,0x01,0xdc,0xff, // 8400
0x0e,0x00,0x66,0xff,0xb8,0xfd,0x08,0x00, 0x98,0x01,0x55,0x01,0x9b,0xfe,0x3c,0xfd, // 8416
0x70,0x00,0x35,0x01,0x02,0x00,0xb4,0xfe, 0x75,0xfd,0xb3,0xfe,0x33,0xff,0xfa,0x00, // 8432
0xc3,0x03,0x81,0xfe,0x26,0x01,0xc4,0x01, 0x56,0x04,0x52,0x03,0x31,0x03,0xa1,0x03, // 8448
0xd4,0x02,0x3a,0x00,0x8e,0x01,0x4c,0x01, 0x4e,0xfc,0x1d,0xff,0xc2,0xfd,0x30,0x01, // 8464
0xbd,0xff,0xdc,0xfd,0x0a,0x05,0x18,0xff, 0xe5,0x00,0x5a,0x02,0x4c,0xff,0x55,0xfe, // 8480
0x06,0x02,0xf5,0xfe,0xc0,0x03,0x5a,0x05, 0x68,0x01,0x50,0xff,0xe1,0xff,0x4b,0x00, // 8496
0x2e,0x02,0xdc,0xfc,0xbc,0x02,0xab,0x01, 0x1d,0x00,0xae,0x02,0x45,0x02,0x70,0x02, // 8512
0xe0,0x01,0x70,0xf9,0x99,0x00,0x26,0x00, 0x43,0xfe,0xd7,0x00,0x9e,0x00,0x12,0xff, // 8528
0x63,0x00,0xef,0xfd,0xb4,0x03,0x7d,0xfd, 0x84,0xfe,0x3c,0xfc,0x76,0x01,0x8c,0xfd, // 8544
0x0d,0xfc,0x1c,0x00,0x98,0xff,0x96,0x00, 0x19,0x01,0x4b,0x01,0xc8,0x00,0x35,0x03, // 8560
0xd4,0xfe,0x8f,0xfd,0xbb,0xff,0x66,0x01, 0x83,0xff,0x33,0x01,0x5f,0x01,0xd4,0xfe, // 8576
0x1d,0xfe,0xa4,0x01,0xb1,0xfe,0x01,0x02, 0x30,0x00,0x16,0x00,0xc3,0x00,0x46,0xfe, // 8592
0xae,0xfe,0x66,0x00,0xf0,0x00,0xfc,0xfc, 0xb3,0x00,0xf1,0xfd,0x82,0xff,0x98,0xff, // 8608
0x20,0x00,0x5a,0x01,0xfc,0xfd,0x75,0xfe, 0x0d,0x02,0x87,0x01,0xe2,0x01,0x92,0xfd, // 8624
0x27,0x01,0x27,0x00,0x39,0xfe,0x22,0xff, 0x84,0x00,0xb7,0x02,0x8e,0x01,0x03,0xfe, // 8640
0x1a,0x02,0xe1,0xfe,0xe4,0xff,0x6d,0x00, 0x85,0x00,0x0a,0xfe,0x47,0x02,0x85,0xfe, // 8656
0xbb,0xfe,0x11,0x01,0xb2,0xfd,0x8b,0x01, 0xb1,0xff,0x04,0xff,0x3b,0x00,0xe7,0xfe, // 8672
0x74,0xff,0x02,0xff,0x97,0xfd,0x0f,0x01, 0xf8,0xfe,0xe6,0x00,0x58,0x01,0x49,0xfe, // 8688
0xe1,0xf9,0xa1,0x00,0x97,0x04,0x21,0x01, 0x35,0xfb,0xc1,0xfd,0x67,0xfc,0xf8,0x00, // 8704
0x2f,0x02,0x98,0x01,0xa7,0xfe,0x00,0x00, 0x2e,0xfe,0xe8,0x05,0xf0,0xfe,0xd0,0x03, // 8720
0xe2,0xfd,0xb7,0xff,0xdc,0xff,0x71,0x04, 0x2e,0x02,0xd2,0xfd,0xa6,0xfc,0xf1,0x01, // 8736
0x31,0x06,0x91,0xff,0xed,0xf8,0x72,0x01, 0x7b,0xff,0x74,0x04,0xd8,0xff,0xce,0x03, // 8752
0x07,0x03,0xb7,0x01,0xa4,0xfa,0x8d,0xfd, 0xdb,0x01,0x29,0xfd,0xb8,0x02,0x03,0x00, // 8768
0xd5,0xff,0x17,0x01,0x89,0x00,0x27,0x00, 0x11,0x01,0x1f,0xfc,0xc2,0xfe,0xe4,0xfd, // 8784
0xee,0x00,0x6b,0x01,0xb7,0x03,0xd3,0x04, 0x9c,0x00,0xc1,0x02,0xbf,0x00,0x29,0x04, // 8800
0xc5,0xfd,0x7b,0x00,0x4b,0x02,0x8a,0x01, 0xbd,0xfd,0x7a,0x02,0xe9,0x00,0xde,0x00, // 8816
0x76,0xff,0x26,0x01,0x42,0x03,0xe6,0x00, 0x17,0x02,0x01,0x03,0xa3,0x02,0x74,0x01, // 8832
0x81,0x04,0x15,0xfe,0x31,0xff,0xbc,0xfe, 0x70,0xfd,0xe9,0xff,0xca,0xff,0xd1,0xfc, // 8848
0x4f,0x02,0x38,0x00,0xd3,0x03,0x1b,0xff, 0x50,0xfe,0xcc,0xfe,0xac,0x01,0x4d,0xff, // 8864
0x25,0x00,0xcd,0x02,0xdf,0x02,0xf9,0xfb, 0x11,0x01,0xf2,0x00,0x8f,0x03,0xcd,0xfb, // 8880
0x2a,0xfc,0x40,0xfe,0x59,0x03,0x05,0xfd, 0x05,0xfe,0x63,0xfe,0x13,0x00,0xf4,0xfe, // 8896
0x6b,0xfd,0xfa,0xfd,0xaa,0xff,0x60,0xff, 0x1f,0xff,0x6d,0xfe,0xb8,0x02,0xd1,0x02, // 8912
0xfc,0x00,0x1c,0xff,0x29,0xff,0x62,0x01, 0xcc,0xf8,0x41,0x00,0x03,0xfd,0x4f,0xfc, // 8928
0xa4,0xfb,0x86,0xfe,0xb1,0x01,0x72,0xfd, 0x59,0xfd,0x20,0x00,0xe3,0xf8,0xb8,0xff, // 8944
0xfa,0xfc,0xa5,0x02,0x53,0xff,0x23,0x00, 0xc9,0x01,0xc0,0xff,0x32,0x06,0x43,0x00, // 8960
0x1b,0x00,0xc5,0xfd,0xb0,0x02,0x19,0x00, 0xb2,0xfc,0x7b,0xfe,0x91,0xfd,0xe4,0x01, // 8976
0xca,0x06,0xc0,0xfc,0xcd,0x07,0xe9,0xf7, 0xf4,0xff,0xc3,0x05,0x37,0x05,0x21,0xff, // 8992
0x59,0x00,0x0c,0xff,0x88,0x01,0xac,0x09, 0x42,0xff,0x04,0x03,0x32,0xfc,0xe6,0xfc, // 9008
0x7a,0x06,0x41,0xff,0x6d,0xfc,0x10,0xfd, 0xdc,0xf8,0xd4,0xfc,0xe4,0x04,0x3f,0xfd, // 9024
0xa1,0xfd,0x70,0xfe,0xbf,0x02,0x9f,0xfd, 0x24,0x02,0x7b,0xfe,0x8b,0x05,0x8c,0xfe, // 9040
0x60,0xff,0x19,0x01,0xaa,0x02,0x8e,0xfb, 0x70,0xfe,0x24,0xf9,0xf0,0xfd,0xb0,0x01, // 9056
0xe5,0xfd,0x61,0xfe,0x0d,0xfe,0x34,0xfc, 0x42,0xfd,0xf9,0xfd,0x2f,0x05,0x6d,0x03, // 9072
0x06,0x02,0xcb,0xff,0x71,0xfd,0x16,0xff, 0xaf,0x00,0x37,0x00,0xa0,0x00,0xff,0x00, // 9088
0xc6,0x01,0xdb,0xfd,0xfb,0x00,0xe2,0xfd, 0x9c,0x00,0x60,0xff,0x8b,0xfe,0x92,0x02, // 9104
0xd3,0xfe,0xeb,0x00,0x70,0x00,0x34,0x01, 0x7f,0xfd,0xca,0x01,0xb1,0xfc,0xe8,0x02, // 9120
0x40,0xfc,0xd7,0xfe,0xc9,0xfe,0x93,0x01, 0xfd,0xff,0xe1,0xfd,0x13,0x02,0xe6,0xfc, // 9136
0x2b,0xff,0xe9,0xfc,0xba,0xff,0xbb,0xfc, 0x60,0x00,0x2d,0x00,0x8d,0x01,0xd3,0xff, // 9152
0x09,0xfe,0x0f,0xfd,0x5a,0xfe,0x25,0x01, 0xd5,0x01,0x32,0xfe,0x5e,0xfd,0x33,0x01, // 9168
0x52,0x00,0x29,0xff,0xf0,0xfc,0x01,0x02, 0x2d,0x00,0x12,0x02,0x6a,0xff,0x45,0x02, // 9184
0xb9,0x00,0x5a,0x01,0x7d,0xff,0x65,0xfb, 0xa7,0xfd,0x7a,0xfe,0x22,0x02,0x42,0x00, // 9200
0x8f,0x01,0xe6,0xff,0x2a,0x01,0x51,0xfe, 0x62,0x03,0x32,0x03,0xa1,0x05,0x28,0x03, // 9216
0x1f,0x03,0x24,0x03,0x4c,0xfe,0x5f,0xfd, 0xc8,0xf9,0x47,0xff,0x1d,0x02,0xc7,0xff, // 9232
0x66,0xfd,0x90,0xff,0x48,0x05,0x43,0xfe, 0xb7,0xff,0x4b,0xfb,0x0d,0x04,0x99,0x03, // 9248
0x5f,0xfc,0x77,0xff,0x2e,0x03,0xf1,0xfd, 0x2b,0x01,0x18,0xfc,0x71,0x02,0x4b,0xf9, // 9264
0xb0,0xfd,0x1b,0xfc,0x6b,0x02,0x44,0x00, 0xea,0xfc,0x67,0x01,0x72,0x02,0xf8,0xfe, // 9280
0xeb,0xfd,0x44,0x01,0x37,0xf9,0xf9,0xfe, 0x4e,0xff,0x03,0x02,0x9f,0x02,0x73,0xff, // 9296
0xd2,0xfe,0xfa,0x01,0xdd,0xfd,0x11,0x01, 0xdd,0xfa,0xb6,0x00,0x0c,0xff,0x81,0xfc, // 9312
0x6d,0xfd,0xa5,0xff,0xcc,0x03,0x98,0xfb, 0x25,0x02,0xd2,0xfe,0xfa,0xfa,0xbe,0x01, // 9328
0xa8,0x01,0x81,0x01,0xbe,0x00,0x1d,0xff, 0x16,0x00,0x65,0x02,0xc1,0xfd,0x00,0x01, // 9344
0x7c,0xfd,0x17,0x01,0xa4,0x01,0xd3,0x02, 0x79,0x01,0xe4,0x04,0x93,0xfc,0x90,0xfb, // 9360
0x98,0x00,0x8f,0x01,0x95,0xfe,0x84,0xfe, 0x40,0xff,0xe2,0xfd,0xed,0xf8,0x9c,0x02, // 9376
0x8b,0x02,0xd6,0xfe,0xa6,0xfe,0xfc,0xfb, 0x5a,0x01,0x04,0x04,0xe5,0xfc,0x15,0x02, // 9392
0x2d,0xfe,0x66,0x02,0x26,0x02,0x4f,0xf9, 0x63,0x02,0x73,0x00,0x67,0x00,0xcb,0xff, // 9408
0xf3,0xff,0xa8,0x02,0x60,0x00,0xd0,0x01, 0x98,0x00,0x29,0xfc,0x79,0x01,0x20,0x02, // 9424
0x9f,0x05,0xfb,0x00,0x8c,0xfe,0x3b,0x01, 0xc9,0xfe,0x2d,0x02,0xc4,0x00,0x1d,0x03, // 9440
0x9a,0xff,0x00,0x00,0x5a,0x00,0x75,0x01, 0x60,0x02,0xf1,0xff,0x53,0xfe,0x40,0x00, // 9456
0x06,0xfe,0xcf,0xfe,0x4d,0xfe,0xf4,0x01, 0xba,0xfe,0xd3,0xff,0x9e,0x00,0x74,0x01, // 9472
0xa3,0xfd,0x4f,0xff,0x2c,0xff,0x2b,0x01, 0x75,0xff,0x71,0x01,0x0d,0xfe,0x71,0xfd, // 9488
0x5a,0xfe,0xe9,0xfc,0xdc,0x00,0x72,0xff, 0xd5,0xfd,0x48,0x00,0x83,0xfd,0xa0,0xff, // 9504
0x5c,0xff,0x26,0x01,0xff,0x01,0x8e,0xfd, 0xfc,0xfe,0xb6,0x00,0xfe,0x00,0xeb,0xfc, // 9520
0x26,0x02,0xbf,0xff,0xf0,0xfc,0xee,0x00, 0xb6,0xfd,0x0d,0xfe,0x2b,0x00,0xdd,0xff, // 9536
0x43,0xfe,0x85,0x01,0xf4,0x00,0x3d,0xfd, 0x03,0x01,0xe4,0xff,0xa3,0xfc,0x3b,0xfe, // 9552
0x99,0xfd,0x3a,0xfe,0x1b,0xff,0xd7,0x01, 0x3e,0xff,0x1d,0x02,0x44,0x01,0xe0,0x00, // 9568
0x7c,0x02,0x8f,0x01,0xa6,0xfd,0xf4,0x01, 0x6f,0x02,0x09,0x00,0x0c,0x00,0xa9,0xfe, // 9584
0x13,0xfe,0x9d,0xfe,0xba,0x00,0x79,0xfe, 0x6b,0x01,0xf3,0xfc,0xbc,0xfe,0x80,0x00, // 9600
0x34,0x00,0x5a,0x00,0xfc,0xfc,0xbf,0xfd, 0x3c,0xff,0xe4,0x01,0xdf,0x00,0xd3,0x01, // 9616
0xe4,0xfd,0x38,0xfe,0x36,0x01,0x09,0xfe, 0xf4,0xfe,0x42,0xff,0xcd,0xfd,0x1f,0xfe, // 9632
0x52,0x00,0x89,0xff,0xe7,0xfd,0x96,0xfe, 0x7b,0xff,0xd3,0xfd,0xb3,0x00,0x75,0x00, // 9648
0x54,0x00,0xf2,0xfe,0x64,0x00,0xab,0x01, 0x61,0x00,0xd1,0x01,0x4f,0xfd,0xef,0x00, // 9664
0x3f,0x02,0x54,0x01,0xcf,0xfd,0xe5,0x00, 0x10,0xff,0x5f,0xfe,0x80,0xfe,0x25,0xfd, // 9680
0x96,0x00,0xe3,0xfd,0xed,0xfd,0x69,0x01, 0xc3,0x00,0xc5,0xfd,0x3e,0x00,0x3d,0xfe, // 9696
0x31,0x00,0xdc,0xfd,0x6c,0xfd,0x2b,0xff, 0xca,0x00,0xdc,0xfe,0x74,0xff,0xdf,0xff, // 9712
0x90,0xfe,0x24,0xfe,0xbe,0xfd,0x95,0xff, 0xe9,0xfc,0x26,0x01,0x6e,0x00,0xf5,0x00, // 9728
0x2c,0xff,0xd0,0xfe,0xc8,0x01,0x9a,0x00, 0x12,0xfd,0xef,0xff,0x23,0xfe,0xc0,0xfd, // 9744
0xd5,0xff,0x35,0xff,0xe7,0xfe,0x23,0x00, 0x82,0x01,0xc1,0xfd,0x4c,0xfe,0x49,0xfe, // 9760
0x6e,0x00,0xd8,0x00,0x83,0xfe,0xeb,0xfd, 0x75,0xff,0xcc,0xff,0x71,0xfd,0xf8,0x00, // 9776
0x9c,0x00,0xd9,0xfe,0xb0,0x02,0x1f,0x00, 0xcc,0xff,0x6d,0x00,0x98,0xfd,0xea,0x00, // 9792
0x3a,0x01,0x4f,0x01,0x78,0xfe,0xb1,0x00, 0xd6,0xfd,0x79,0xfe,0xe9,0xfc,0xce,0xfd, // 9808
0x6e,0xff,0x72,0x02,0xaf,0xff,0x41,0x00, 0x7e,0x00,0x10,0xff,0x24,0x01,0xc0,0x01, // 9824
0x4a,0xfd,0x1a,0xff,0xd6,0xfd,0x45,0xfd, 0xb1,0xfe,0x02,0xff,0x75,0xfd,0xdf,0x00, // 9840
0x8f,0x01,0x7a,0xfd,0x07,0x01,0x80,0xff, 0xad,0x00,0x1f,0x01,0x0a,0xfe,0x84,0x01, // 9856
0x21,0x00,0xba,0xfd,0x60,0xfd,0x4d,0xfe, 0xcf,0xfd,0x77,0xfd,0x6f,0x00,0x2a,0xff, // 9872
0xbc,0xfd,0xd4,0xfe,0x60,0xfe,0xe9,0xfd, 0xfb,0x01,0xf2,0xfe,0xc7,0xff,0xa0,0x01, // 9888
0x53,0xfe,0x7d,0x01,0x25,0x01,0x27,0xfe, 0x14,0xff,0xb5,0xfe,0x68,0xfe,0x58,0x02, // 9904
0x67,0x00,0x99,0x01,0x08,0xfd,0xe6,0xfc, 0x48,0xfd,0x63,0xfc,0x88,0xff,0x7b,0xff, // 9920
0xf2,0x00,0x72,0x00,0x79,0x01,0x46,0x02, 0xc5,0xff,0xf2,0xfc,0xcc,0x00,0x29,0xfd, // 9936
0xae,0xfd,0xf2,0xfd,0xcd,0x01,0x92,0xff, 0x37,0x01,0x7a,0xfd,0x72,0x02,0x3d,0x01, // 9952
0x3c,0xfe,0x96,0x00,0x2b,0x00,0x09,0x01, 0xd3,0x00,0x6a,0x01,0xcc,0xfe,0x74,0xff, // 9968
0x04,0xfe,0xba,0x00,0x0c,0xfe,0x9f,0x00, 0x58,0xfe,0xed,0xfe,0x20,0x02,0xab,0xff, // 9984
0xd0,0x00,0xe6,0xfd,0xe8,0xfd,0xa6,0x02, 0xad,0x00,0x3d,0x01,0xac,0x02,0x5d,0x02, // 10000
0x35,0xff,0x63,0x03,0x9e,0xfc,0xc3,0x01, 0x08,0x00,0x89,0xfe,0xec,0x01,0xd4,0x01, // 10016
0x77,0xfe,0xa4,0x01,0x02,0x02,0xd3,0x01, 0xfb,0x02,0x07,0x01,0x1a,0x00,0xa8,0xfc, // 10032
0xc2,0xfd,0xe7,0xff,0x64,0x01,0x42,0x01, 0x87,0xfe,0x19,0x02,0xc1,0xfe,0x34,0xfd, // 10048
0xbc,0x01,0x77,0x02,0xe7,0xff,0x9b,0x00, 0x70,0x01,0x40,0xfc,0x69,0xfd,0x0e,0x01, // 10064
0xd6,0x01,0xe7,0xfc,0xa4,0x01,0x35,0xfd, 0xf7,0xfd,0x24,0x02,0x9a,0xfe,0xef,0x01, // 10080
0xde,0xfb,0x5e,0x03,0x78,0xfd,0xa9,0x02, 0x3d,0xff,0xf6,0xfe,0x6e,0xfb,0x68,0xfc, // 10096
0x01,0x04,0x69,0x00,0xa0,0x01,0xca,0xff, 0xa4,0x03,0xbb,0x03,0xba,0x05,0x6b,0x04, // 10112
0x77,0x01,0xf2,0xff,0xdb,0xfc,0x8f,0xfd, 0x75,0xff,0x30,0xfe,0xbf,0xfb,0x7d,0xff, // 10128
0x1a,0x00,0x20,0x02,0xed,0x06,0xf2,0xfd, 0x41,0x01,0x3b,0x02,0xc3,0xfe,0x5c,0xff, // 10144
0x0e,0xfe,0x7d,0xff,0x47,0x05,0xa1,0x03, 0x9a,0x03,0x11,0xfd,0xca,0x03,0xdf,0xf9, // 10160
0xa2,0x02,0x9a,0xfa,0x0c,0x02,0x78,0x01, 0x6b,0x01,0xbc,0xfe,0x3c,0x03,0x86,0x00, // 10176
0x35,0xff,0xde,0x04,0xc2,0x00,0x9d,0x02, 0x15,0x02,0x22,0xff,0x95,0x04,0xab,0x02, // 10192
0xb5,0x04,0x7a,0x00,0xf0,0x01,0xd9,0x00, 0x9c,0xfc,0xf3,0xfc,0xf4,0xff,0x3e,0xfb, // 10208
0x13,0xfa,0xeb,0xff,0x9f,0x01,0x88,0xfc, 0x59,0x01,0xa3,0xfd,0xe8,0xfe,0x3d,0xff, // 10224
0xec,0xfe,0x24,0xfd,0xef,0xff,0xda,0xfe, 0xcb,0xfd,0x5f,0xfc,0x1c,0x00,0x76,0xfe, // 10240
0x5e,0x00,0xaf,0x01,0x1a,0xfe,0x2f,0xfe, 0xfa,0xff,0xd2,0xfe,0x09,0x02,0x8e,0xfd, // 10256
0x00,0xfd,0x3a,0xfd,0x35,0x02,0xa9,0xfe, 0xb4,0xfd,0x39,0xfc,0xba,0xfd,0x0e,0x02, // 10272
0xc6,0x00,0x7e,0xff,0xd0,0xff,0x80,0x01, 0x19,0xff,0x76,0x01,0x47,0x01,0xbe,0xff, // 10288
0x10,0xfe,0x25,0xff,0xcf,0xff,0xa2,0x01, 0xbc,0x00,0x0d,0x00,0x8b,0xff,0x2e,0xff, // 10304
0xcf,0x02,0xcb,0x01,0x9a,0xfc,0xea,0x01, 0x3e,0xfd,0xa5,0x00,0x1a,0xff,0x21,0x01, // 10320
0xad,0xff,0x06,0x02,0xff,0xff,0x9b,0x01, 0x98,0xfe,0x05,0xfd,0x53,0xff,0x03,0x01, // 10336
0x62,0x01,0x17,0x03,0x79,0xfe,0xeb,0xfe, 0x6b,0xfe,0x14,0x02,0x15,0x00,0x80,0xff, // 10352
0xa8,0xff,0x2a,0xfd,0x3a,0xff,0xfd,0xfd, 0xc8,0xfe,0x21,0xfd,0xde,0x01,0xe1,0xfd, // 10368
0xd5,0x00,0x91,0x02,0x43,0x01,0x6c,0xfd, 0x30,0x02,0xa9,0xff,0x09,0x01,0x36,0xfe, // 10384
0xf8,0xfc,0x7d,0x00,0xe7,0xfc,0x45,0x00, 0x5e,0xff,0x71,0xff,0x46,0xfe,0x60,0xff, // 10400
0xb8,0x00,0x99,0x02,0xd0,0xfd,0x85,0xfc, 0xfe,0xfe,0x23,0xfe,0x34,0xfe,0x3a,0x00, // 10416
0xa6,0x02,0x73,0x01,0xbf,0xfe,0x1e,0xfd, 0xa6,0xfe,0x40,0x01,0xce,0xfc,0xdb,0x01, // 10432
0x6e,0xfe,0x45,0x01,0xf8,0xfd,0x4d,0x00, 0xa1,0x00,0xb3,0x00,0x32,0x00,0x79,0xff, // 10448
0x08,0x01,0x11,0x01,0x2d,0xfe,0x77,0x00, 0x0b,0x01,0xc1,0xff,0xd8,0xfc,0xba,0xfe, // 10464
0xf9,0xfd,0x87,0xfd,0xc2,0xfe,0x67,0x00, 0x2f,0x00,0x68,0x02,0xef,0xff,0x37,0x01, // 10480
0x60,0xfe,0x1a,0x01,0x51,0xfd,0x8b,0xfd, 0xc9,0xff,0x63,0x00,0xe5,0x00,0x87,0x00, // 10496
0xff,0xfd,0x84,0xfd,0x94,0x01,0xcd,0xfe, 0xfe,0xfe,0x6e,0xfe,0x5b,0x00,0x15,0x01, // 10512
0x6d,0x01,0x5f,0x02,0x2f,0xff,0x50,0xfe, 0x17,0xff,0x10,0xfe,0x2f,0xfd,0x5c,0xfd, // 10528
0x9d,0xfe,0xb2,0x00,0x45,0xfe,0x59,0x01, 0x13,0x01,0x37,0xff,0x92,0xfe,0x51,0x01, // 10544
0x99,0xfd,0x9f,0xff,0x32,0x01,0x2b,0xff, 0x31,0xfe,0xfe,0xfd,0xa6,0xff,0x71,0xfe, // 10560
0x71,0xff,0x03,0x01,0x1f,0xfe,0x95,0xfe, 0x03,0x02,0xf5,0x00,0x56,0xff,0x71,0xfd, // 10576
0xd8,0xfe,0xa8,0x00,0x94,0xfd,0x66,0xff, 0x46,0xfd,0xd6,0xff,0x3a,0xff,0xc9,0xfe, // 10592
0x77,0xfe,0x91,0x00,0xfa,0xfd,0x37,0xfe, 0x6e,0x00,0x0b,0x01,0x31,0x00,0xf3,0x00, // 10608
0x49,0xff,0xf7,0xfe,0xb7,0xfe,0x39,0xff, 0xc6,0xfd,0x04,0xfe,0x87,0xff,0xdb,0xfe, // 10624
0x64,0xff,0xe0,0xfe,0x66,0xff,0xff,0x00, 0x13,0x00,0x0b,0xff,0x7a,0x01,0x09,0xfe, // 10640
0xb4,0xfd,0xc4,0x00,0xa3,0x00,0xff,0x00, 0x8e,0x01,0x1a,0xfd,0x91,0xff,0x34,0x00, // 10656
0x77,0xfd,0xc9,0xfe,0x23,0x02,0x6c,0xff, 0x57,0x00,0xb8,0xfe,0x23,0xff,0xf8,0xfe, // 10672
0x3f,0xfe,0x05,0xfd,0xa2,0xff,0x6c,0x01, 0xea,0xfe,0x6d,0xfe,0xd8,0xfe,0x37,0xff, // 10688
0x90,0xfd,0x8a,0xfd,0xee,0xfd,0x29,0xff, 0x39,0x02,0xc3,0xff,0xe9,0x01,0xa1,0xfe, // 10704
0x8c,0x00,0x7f,0xfe,0xc6,0x01,0xdb,0x01, 0x12,0xfd,0xd7,0x00,0xf7,0xff,0x92,0xff, // 10720
0x8c,0xfc,0x71,0xff,0x18,0x01,0xa4,0x02, 0xd4,0x01,0x96,0x02,0x87,0xfd,0xae,0xfd, // 10736
0xfe,0xfe,0x0b,0xfd,0xc2,0xfe,0x6b,0xff, 0xe3,0xff,0xce,0xfd,0x40,0x00,0xcb,0xfe, // 10752
0x63,0xff,0x55,0xfd,0x22,0xfd,0x0f,0xfe, 0x20,0x00,0xdb,0xfd,0xbb,0x02,0x66,0xfe, // 10768
0x81,0xfe,0x17,0xfe,0x37,0x00,0xc7,0xff, 0x0f,0x00,0xd9,0xfc,0xb4,0xfe,0xec,0x00, // 10784
0xbc,0x00,0x65,0xff,0xff,0x00,0xfa,0xfd, 0xbc,0xff,0x78,0x01,0x22,0x01,0x86,0xfe, // 10800
0xe7,0xfe,0xc0,0x00,0x66,0x01,0xc8,0xfe, 0x03,0x00,0xe1,0xff,0xb6,0xff,0x45,0x00, // 10816
0xb7,0x00,0x21,0x00,0xa6,0x01,0x64,0x00, 0xd8,0xff,0xe8,0xff,0xf0,0xff,0x6a,0xfd, // 10832
0xa0,0xff,0x64,0xfe,0x26,0x01,0x40,0x02, 0xf1,0xfc,0xe9,0xfe,0x83,0xff,0xe4,0x01, // 10848
0x89,0x00,0x48,0xfd,0xac,0xfd,0x24,0x01, 0x7d,0x02,0x9f,0xff,0x13,0x02,0xc7,0x00, // 10864
0x82,0xfb,0xae,0xfe,0x05,0x05,0xaf,0xfe, 0xd6,0xfd,0x8d,0xff,0xe8,0xff,0x0c,0x00, // 10880
0x56,0x01,0xa0,0x01,0x35,0x00,0x1b,0x01, 0x14,0xfe,0x78,0x03,0x38,0x03,0xd3,0x01, // 10896
0xda,0xff,0x63,0xfe,0x4e,0x01,0x89,0x04, 0x24,0x01,0x96,0xfb,0xbf,0xff,0x2f,0x01, // 10912
0x74,0x01,0xcf,0xfd,0x88,0xfa,0x3f,0xff, 0x16,0x00,0xcc,0xfd,0xbc,0x02,0xc0,0x03, // 10928
0x21,0x05,0x8b,0x05,0x40,0xfd,0x10,0xfb, 0x24,0x03,0xc3,0xfb,0x07,0x01,0x5f,0xfe, // 10944
0xf8,0xfd,0x8d,0x01,0xf4,0xff,0x01,0x02, 0x3e,0x00,0xec,0xfc,0x43,0x03,0x41,0xff, // 10960
0x6b,0x02,0xae,0x04,0xbb,0x01,0x1d,0x04, 0xad,0x03,0xc7,0x00,0x22,0x04,0x0f,0x03, // 10976
0xba,0xff,0xa1,0xfc,0xec,0xff,0xb4,0x04, 0x39,0x02,0x91,0xfc,0xfc,0x05,0x52,0xff, // 10992
0x3a,0x01,0x35,0x00,0x7a,0xfe,0x20,0x02, 0x51,0xfe,0x92,0x00,0x06,0xfc,0x3d,0xff, // 11008
0x05,0xff,0x62,0x00,0x40,0xfb,0xa0,0x02, 0xa0,0xfd,0x39,0x02,0xfb,0x00,0x48,0xff, // 11024
0x70,0x01,0xf5,0xfe,0x7b,0xfc,0xc6,0xfc, 0xa4,0x02,0xd9,0x00,0xf9,0xfa,0x48,0xfe, // 11040
0xa2,0x03,0xff,0x01,0xc9,0xfd,0xb3,0xff, 0x96,0xff,0x6a,0xfb,0x91,0xfd,0xd7,0x00, // 11056
0xb3,0xfe,0xe5,0xff,0x56,0x00,0x38,0xff, 0xab,0x01,0xf6,0xfd,0xa2,0xfc,0xf1,0x00, // 11072
0xe6,0xfd,0x69,0xfd,0x47,0x00,0xf3,0x00, 0xcf,0xff,0x65,0x00,0x7c,0x02,0x34,0x00, // 11088
0x40,0x04,0xdb,0x02,0x55,0xfd,0x68,0xff, 0xb8,0xfc,0x53,0x01,0x9e,0x01,0x86,0x02, // 11104
0x08,0x02,0x0a,0xfe,0xd8,0x00,0x2f,0xff, 0x0c,0xfe,0xed,0xfd,0x49,0xfe,0x8d,0xfd, // 11120
0xb7,0xff,0x5d,0xff,0x4d,0x03,0x38,0x00, 0x0e,0xfb,0x1a,0xff,0x2d,0xfb,0x56,0x02, // 11136
0x3f,0x00,0x22,0x00,0x67,0xff,0xbd,0xfd, 0xa2,0x02,0xff,0x03,0xe2,0xfd,0xfb,0xfb, // 11152
0xdc,0xfe,0xdb,0xfd,0x7b,0xff,0xd7,0x04, 0xae,0x00,0x32,0xff,0x6e,0xfa,0xd7,0x01, // 11168
0x85,0x05,0x68,0xff,0xdf,0xfa,0x9e,0x01, 0xdb,0xff,0xa2,0x00,0xc9,0x01,0xff,0x03, // 11184
0xe8,0x01,0x82,0x05,0x76,0xfc,0x9b,0xfa, 0x92,0x03,0xef,0x00,0xcc,0x01,0x66,0x00, // 11200
0x8f,0xfd,0xc0,0xff,0x0c,0xff,0x13,0xfe, 0xbf,0xff,0x6e,0xfb,0x65,0x01,0x17,0xfe, // 11216
0xa6,0x00,0xc0,0x03,0x97,0x01,0xc8,0x04, 0x4a,0x00,0x7c,0x03,0xed,0x03,0x4c,0x00, // 11232
0xb5,0xff,0x78,0xff,0x8b,0x03,0x1c,0x02, 0x4e,0x01,0x8c,0xfe,0x16,0x04,0x29,0xfe, // 11248
0xfe,0xfd,0xa4,0x00,0x39,0x01,0x35,0x00, 0x20,0x01,0xcb,0xff,0x8e,0x01,0xd8,0xfe, // 11264
0xa7,0x02,0x7d,0x00,0xfd,0x00,0xfb,0xfd, 0xc9,0xfd,0x0f,0x00,0x65,0xfd,0xb1,0x01, // 11280
0xd9,0xfc,0x90,0xfe,0xa3,0x00,0xc4,0xfd, 0x39,0x00,0x75,0xfc,0x3c,0xf9,0x1f,0x01, // 11296
0x3e,0x01,0x8f,0xff,0xd4,0xfd,0x92,0x01, 0xac,0xfd,0xd7,0xfe,0xed,0x01,0x8f,0xfd, // 11312
0x72,0x01,0x20,0x01,0xae,0x00,0x80,0xfe, 0x58,0x01,0x6e,0xfe,0x8e,0x00,0xab,0xff, // 11328
0x18,0xfd,0x80,0xfd,0x7d,0xfc,0x20,0x00, 0x54,0x02,0x30,0x00,0xe8,0x01,0xa8,0xff, // 11344
0xea,0xfe,0x02,0x02,0xb1,0x00,0x7d,0x02, 0x58,0xfe,0xe7,0xfd,0x8f,0xfd,0x69,0xff, // 11360
0xf8,0x00,0xf3,0xfc,0x19,0x00,0xd0,0x02, 0xd1,0xff,0xda,0xfd,0x3f,0x02,0x4c,0xfe, // 11376
0xea,0xfd,0xe4,0x00,0xc1,0xfe,0x5e,0xff, 0xe0,0x01,0xcc,0xfd,0x4e,0xff,0x79,0xfd, // 11392
0x46,0xfe,0xa2,0xfe,0x63,0x01,0x01,0x00, 0x69,0x00,0x13,0x01,0xa1,0xff,0xb5,0xfd, // 11408
0x0a,0xff,0x48,0x00,0x2e,0x00,0xfa,0xfc, 0x4f,0x00,0xde,0xff,0x91,0xfe,0x5b,0x02, // 11424
0xf9,0x00,0xf7,0x00,0xec,0xff,0x6f,0x00, 0x81,0xff,0x4e,0x00,0xfd,0x00,0x35,0xfd, // 11440
0xfc,0x01,0xf5,0xff,0x10,0xff,0xbc,0xff, 0xde,0xff,0x0d,0x00,0xd0,0x00,0x83,0xfe, // 11456
0x00,0xff,0xa5,0xff,0x0d,0xfe,0x65,0x02, 0x33,0x02,0xee,0x00,0xb5,0xfd,0x9b,0xfd, // 11472
0x9f,0xff,0x6b,0xfd,0x7f,0x01,0x76,0x00, 0xf3,0x00,0xcc,0x00,0xad,0xfd,0xd9,0x00, // 11488
0xf2,0xfe,0x85,0x02,0x6d,0xfe,0xe3,0xff, 0xc6,0xfd,0xa0,0xfe,0xea,0xfe,0x23,0xfd, // 11504
0xf1,0xff,0x4a,0x00,0x83,0xff,0x7f,0x00, 0xcf,0x01,0x7f,0xfd,0x18,0x02,0xed,0xfe, // 11520
0xb3,0xff,0xf1,0x00,0xe5,0x00,0xc5,0xff, 0x01,0xff,0x59,0xfd,0x0c,0xff,0xe0,0x01, // 11536
0x51,0xfe,0xc4,0x00,0xf1,0x00,0x59,0x00, 0x74,0xff,0x19,0x01,0x44,0xfe,0xb9,0xfd, // 11552
0x02,0xff,0x36,0xff,0xcc,0x00,0xde,0xfc, 0x83,0xfd,0x5e,0xfd,0xac,0xfe,0xab,0xff, // 11568
0xf4,0x01,0x19,0x00,0x38,0xfe,0x15,0x02, 0x40,0x00,0x00,0xff,0x4f,0xfe,0xcc,0xff, // 11584
0x47,0x02,0x73,0xfd,0x91,0xfd,0x21,0x00, 0x91,0x00,0x80,0xfe,0xf5,0xfd,0xb0,0x01, // 11600
0x54,0x00,0x30,0xfd,0xe2,0xfd,0x4c,0xfd, 0xf9,0xff,0x1c,0x02,0xd8,0xfc,0xdd,0xff, // 11616
0x0d,0x00,0x2c,0x00,0x07,0x01,0xa7,0xff, 0xc1,0xfe,0x27,0x01,0x5d,0xfd,0xe8,0x00, // 11632
0xdc,0x01,0x37,0xfd,0xe1,0xff,0x4e,0xfe, 0xea,0xfd,0xb5,0x01,0xa8,0xfd,0x2e,0xfc, // 11648
0x18,0xfd,0xf6,0xfc,0xd8,0x02,0x50,0x01, 0xe6,0x00,0x7c,0x00,0x99,0xfe,0x1a,0xff, // 11664
0x41,0xff,0x0e,0x01,0x4c,0x00,0xf8,0xfb, 0x36,0x01,0xc6,0xfd,0xa6,0x01,0xfb,0x00, // 11680
0xa5,0x00,0xd7,0xfd,0xa7,0xfa,0x31,0xfd, 0x8f,0x02,0x52,0x03,0x8a,0x00,0x22,0xff, // 11696
0x02,0x00,0x2c,0xfd,0xe0,0xfd,0x02,0xff, 0xe5,0xff,0x87,0xfb,0x09,0xfb,0xae,0x00, // 11712
0x93,0xfd,0x43,0x00,0xb0,0x00,0x18,0x01, 0x06,0xfe,0x91,0xff,0xf7,0xfe,0x55,0xff, // 11728
0xf6,0xfe,0x2e,0x02,0x27,0xfe,0xef,0xfc, 0xec,0x01,0x89,0xfc,0x58,0xfd,0x92,0x02, // 11744
0x65,0x00,0x09,0xfe,0x6a,0x00,0xf5,0xfe, 0x11,0x00,0x3b,0xff,0x74,0xff,0x23,0xfe, // 11760
0x33,0x00,0x93,0x01,0x23,0x02,0x9b,0xfd, 0xfe,0xfd,0x44,0xff,0x0f,0xfe,0x53,0xfd, // 11776
0x61,0xff,0xed,0x00,0xb1,0x00,0xa6,0x00, 0x22,0x00,0x20,0x02,0xd3,0xfd,0x08,0xff, // 11792
0x25,0x00,0xc1,0xfd,0xe8,0xfd,0x21,0x00, 0x59,0xfd,0xf7,0xff,0x41,0xff,0xf9,0xff, // 11808
0x6a,0x00,0xe1,0xfd,0x83,0xff,0xe9,0xfe, 0xc9,0xff,0x6a,0x00,0x0b,0xff,0xb0,0x00, // 11824
0x1d,0xfe,0x9c,0xfd,0x50,0xfe,0x90,0xfd, 0xd6,0xfd,0x3e,0x00,0x40,0xfd,0x36,0xff, // 11840
0x52,0x00,0x27,0xfe,0x5f,0xff,0x71,0x00, 0xa5,0xfd,0x77,0xfe,0x05,0x02,0x49,0xfd, // 11856
0xe9,0x00,0x58,0xff,0x98,0xfd,0x47,0xff, 0x9a,0xff,0x4a,0xff,0x8d,0xff,0x02,0x01, // 11872
0x7e,0xff,0xd2,0xfe,0xa2,0xff,0x0d,0xff, 0x8e,0xfd,0xa0,0x02,0x50,0x02,0x3b,0xff, // 11888
0x76,0x00,0x6d,0x01,0xf5,0xff,0x72,0x00, 0xf2,0x00,0xdd,0xfd,0xd8,0xfe,0x3d,0xfe, // 11904
0xc0,0xfc,0x5f,0xfe,0xf8,0xfc,0xd6,0xfe, 0x27,0x00,0xec,0x01,0xd6,0xfd,0xef,0x01, // 11920
0xb3,0xfe,0xc6,0x00,0x33,0x01,0xb7,0xff, 0x9d,0xfd,0x5f,0xfd,0x8d,0xfd,0xda,0x00, // 11936
0x1e,0x01,0x62,0xfd,0xbb,0x00,0x25,0x00, 0x7e,0xff,0xe7,0xfe,0x25,0x00,0xec,0x00, // 11952
0xc2,0x01,0x38,0xfe,0xe3,0xfe,0x0f,0xfe, 0x8b,0xff,0x4a,0x01,0x2b,0x02,0xfd,0x01, // 11968
0x48,0x01,0xb3,0x01,0x9b,0x02,0x1b,0xfe, 0xef,0xfd,0x32,0x01,0x89,0xfe,0x9f,0xff, // 11984
0x8b,0xfe,0x31,0x02,0xb6,0xfe,0x16,0xfd, 0xb1,0xff,0x43,0x01,0x65,0xff,0x3d,0xfd, // 12000
0x78,0xfe,0xde,0xff,0xd4,0x01,0x33,0xff, 0x47,0xfd,0xb4,0xfd,0xd9,0xfd,0x97,0xfd, // 12016
0x59,0x00,0xa0,0xfc,0x26,0xfe,0x9b,0x01, 0x7e,0xfe,0x39,0xfd,0x62,0xfd,0x37,0xff, // 12032
0xe3,0xfe,0x27,0xff,0x4a,0xff,0x1e,0xff, 0xfb,0x01,0xa3,0xfe,0xc8,0x02,0xa3,0xfe, // 12048
0xb5,0x01,0x60,0x01,0x44,0xfe,0xad,0xff, 0xf7,0x00,0xc8,0xfe,0xb8,0x00,0x43,0xfd, // 12064
0xf4,0x00,0xb5,0x01,0x79,0x01,0xcd,0xfd, 0x99,0xfe,0xba,0xfe,0xff,0xfc,0x6e,0x00, // 12080
0x5b,0xff,0x43,0x02,0xb7,0xfe,0x5c,0x01, 0x4e,0xfe,0x52,0xfe,0xe2,0xff,0x4f,0x00, // 12096
0x0f,0x01,0x5f,0x02,0x9d,0xfd,0x89,0xfe, 0x94,0x02,0x84,0xfe,0xa0,0x01,0xa1,0xfd, // 12112
0xdc,0x00,0x9c,0xfc,0x47,0xff,0xe8,0xfe, 0xb7,0x00,0x96,0xfe,0x55,0xfd,0x62,0xff, // 12128
0xf5,0xfd,0xdd,0xff,0x21,0x00,0xab,0xff, 0x62,0x00,0x84,0x00,0x1a,0x01,0x3f,0xfd, // 12144
0x7f,0x02,0xdd,0xff,0xb8,0xfe,0xb0,0x01, 0x42,0x00,0x8a,0x00,0x96,0x02,0x7a,0x00, // 12160
0x0d,0x00,0xa0,0x00,0xbc,0xff,0x64,0xfe, 0x30,0x01,0xea,0x01,0x8c,0xfe,0x6f,0xfe, // 12176
0xa3,0xfd,0x9a,0x02,0xc3,0xff,0xd5,0xfe, 0xb8,0xfc,0xa0,0xff,0x68,0x00,0xb9,0x00, // 12192
0x65,0x00,0x0e,0xfd,0x7a,0x00,0x59,0x00, 0xf1,0x00,0x43,0xfc,0xf7,0xff,0xee,0xfa, // 12208
0xe7,0xfd,0x80,0xfe,0x36,0x00,0x5a,0xfc, 0x9c,0xfa,0xee,0xfb,0x93,0xff,0x4b,0xfe, // 12224
0x3f,0x00,0xf1,0xfd,0x18,0x01,0x1a,0xff, 0x1d,0x02,0xc8,0xfd,0xdd,0x00,0x76,0x01, // 12240
0x25,0x02,0xc3,0xfb,0x32,0xfd,0x82,0xfd, 0x58,0xf5,0xe4,0x01,0x0e,0xfc,0x9a,0xfc, // 12256
0x6c,0xfd,0x7f,0xfe,0x69,0xfe,0x69,0xfc, 0x15,0xfd,0x5f,0x00,0xb4,0xfd,0x62,0xff, // 12272
0x39,0xff,0x49,0xff,0x22,0x01,0xb3,0xfe, 0xd1,0x00,0x3d,0x02,0xf4,0xfe,0xc9,0x02, // 12288
0x2b,0x00,0xd6,0x04,0x7d,0xfe,0xfa,0xfd, 0xb5,0xfd,0x7a,0x05,0x7c,0xfa,0xa4,0xfd, // 12304
0xb6,0x02,0xd9,0xfe,0xa4,0x03,0xb7,0xff, 0xe8,0xfe,0x9c,0xfc,0xea,0x02,0x52,0xff, // 12320
0xd6,0x03,0xbc,0xfd,0x07,0xfe,0xd2,0x01, 0x52,0x01,0xd1,0x01,0x87,0xfd,0xa3,0xff, // 12336
0x1e,0x04,0x5d,0x03,0x24,0xfd,0xbd,0xfc, 0x0e,0x04,0xd3,0xfd,0xc5,0x03,0x81,0x00, // 12352
0x82,0x01,0xfc,0x02,0xf0,0x01,0x8c,0x01, 0xcf,0x00,0xcc,0xf9,0xa5,0x03,0x20,0xff, // 12368
0xff,0x00,0x44,0x02,0x99,0xfb,0x51,0x01, 0x5b,0x02,0xa8,0x02,0x0f,0x01,0xba,0x01, // 12384
0x12,0x02,0x53,0x02,0xc5,0xff,0xdf,0x01, 0xb6,0x00,0x74,0xfe,0xd5,0x08,0x9d,0xfd, // 12400
0x54,0xfd,0xdb,0xfc,0x1b,0xfd,0xaa,0xfd, 0x39,0xfd,0x41,0x02,0xc3,0xff,0xf8,0xff, // 12416
0x53,0xfd,0x8e,0x00,0x54,0x02,0x98,0xff, 0x04,0xfe,0x00,0xfe,0x56,0x00,0x45,0x01, // 12432
0x42,0x02,0xf5,0x00,0x5d,0x01,0x28,0xfd, 0x2f,0x00,0x6d,0xfd,0x5f,0x01,0x07,0xff, // 12448
0xc1,0x01,0xbe,0x02,0x53,0xfd,0x29,0x02, 0xd0,0x01,0x70,0xfd,0xee,0xfd,0xa2,0x02, // 12464
0x8f,0x01,0xef,0xfd,0xe1,0x00,0x1a,0x00, 0x48,0xff,0x85,0xff,0xdc,0x00,0xae,0x02, // 12480
0xb9,0xfd,0x6a,0x00,0xa0,0xfe,0xfd,0xff, 0x72,0xff,0x3b,0xfd,0x5c,0xff,0x91,0x02, // 12496
0x2a,0xff,0x9a,0xfe,0xfa,0xfd,0xa0,0xfd, 0xad,0xfe,0x62,0xff,0xb3,0xff,0x42,0x00, // 12512
0x42,0x01,0x40,0x00,0x50,0x02,0x54,0xfe, 0xbf,0x01,0xd0,0xfd,0xb2,0xfd,0x16,0xfd, // 12528
0xa8,0x02,0x8c,0xfe,0x8d,0x03,0x80,0x02, 0x71,0xff,0xf0,0xfd,0xbc,0xf9,0x97,0x00, // 12544
0x33,0x01,0xbc,0xfc,0x32,0xff,0xd5,0xff, 0x13,0xfe,0xd7,0x05,0x1c,0x02,0xc7,0x03, // 12560
0x08,0xff,0x62,0x01,0xdf,0xfe,0x6b,0x00, 0xe9,0x00,0x10,0xff,0x96,0x02,0x44,0x02, // 12576
0xbf,0x05,0x97,0xff,0xd0,0xfa,0x3d,0xfd, 0x43,0xff,0x72,0x01,0x34,0xff,0x69,0x00, // 12592
0x23,0x01,0x5e,0x02,0xed,0xfb,0x16,0xfa, 0x84,0x01,0x74,0xff,0x18,0x00,0xcc,0x01, // 12608
0xbb,0x00,0x26,0x03,0x45,0xfc,0x16,0x02, 0x37,0xfe,0xdf,0xfa,0xa2,0x00,0x2d,0x01, // 12624
0x4a,0x00,0xa2,0x03,0x30,0x03,0x59,0x03, 0x1a,0x01,0x39,0xff,0x38,0x05,0x1d,0x02, // 12640
0xe6,0xfd,0xd4,0xff,0x94,0xfe,0xc3,0x02, 0xc9,0xfd,0x3b,0xff,0xa1,0x00,0x01,0xff, // 12656
0xee,0xff,0x37,0xfe,0xd3,0xfe,0xb9,0xff, 0x74,0xfd,0xdb,0xfc,0xb6,0xfe,0x2f,0x01, // 12672
0x62,0x01,0x87,0xfe,0x64,0xff,0xf2,0x01, 0xa7,0x01,0x80,0xfc,0xd8,0x00,0x2c,0xfe, // 12688
0x02,0x00,0x80,0xfd,0x84,0xfd,0x09,0x00, 0xc5,0xff,0x53,0xff,0x2b,0xff,0x6f,0x01, // 12704
0x64,0xfd,0x5a,0x01,0xbf,0xff,0x3e,0x00, 0xd2,0xfc,0xdc,0xfd,0x1a,0xfe,0x25,0x00, // 12720
0x7f,0x01,0xa7,0x01,0x6c,0x00,0xd2,0x00, 0x3e,0x02,0x4a,0x01,0x9a,0xfc,0xca,0x02, // 12736
0x10,0x02,0x0d,0xfe,0xda,0x01,0xe3,0xff, 0xfe,0xfe,0x6d,0xff,0x1a,0xfe,0x26,0xfe, // 12752
0xb5,0xfc,0xec,0xfe,0x57,0xff,0x1b,0x00, 0x9c,0xfc,0x52,0x02,0x25,0x02,0x48,0x01, // 12768
0x33,0xfd,0xae,0x00,0xe2,0xfd,0x07,0x01, 0x2e,0x01,0xc8,0x00,0x7f,0xfe,0x06,0x01, // 12784
0x2d,0x00,0x23,0xff,0x18,0xfe,0x83,0xfe, 0x30,0xfe,0xce,0x01,0x4e,0x01,0x00,0xfe, // 12800
0xb9,0x01,0xe4,0x01,0xc7,0x00,0xb9,0xfe, 0x50,0x00,0xb6,0xff,0x31,0xfe,0xd5,0xff, // 12816
0xb3,0xff,0x28,0x01,0x08,0xff,0x4c,0xfd, 0xac,0x02,0x56,0xfd,0xae,0xfd,0x59,0x02, // 12832
0xd8,0xff,0x99,0xfe,0xe7,0x00,0xaa,0x01, 0x0f,0xfd,0x95,0x00,0x31,0xfe,0xe4,0x00, // 12848
0x0a,0x03,0x5c,0x01,0x39,0x00,0x7f,0xfd, 0x14,0x02,0x7f,0x01,0xf2,0xfe,0x0f,0xfe, // 12864
0x13,0x01,0x82,0xff,0x90,0x02,0xf5,0xff, 0xcf,0x02,0x3f,0x02,0xf4,0xfe,0x6c,0xfe, // 12880
0xb3,0x01,0x48,0xff,0x3c,0xfc,0x8e,0xfe, 0x7a,0xfd,0x4b,0xfd,0x67,0x00,0xde,0xff, // 12896
0x02,0x01,0xb5,0xff,0x20,0x00,0x3b,0x01, 0xb6,0x02,0x7e,0xff,0x6e,0x00,0x7e,0x02, // 12912
0x4b,0x00,0x96,0xfd,0xf0,0x02,0x35,0xff, 0x30,0xfd,0xc5,0xfe,0x58,0xfa,0x2e,0x00, // 12928
0xde,0xfc,0x9a,0xfe,0xce,0x03,0x64,0x02, 0x15,0x00,0x11,0x05,0x31,0x00,0xb1,0x00, // 12944
0xfa,0xfa,0xe9,0xff,0x6b,0xfa,0x3c,0x02, 0xbf,0x02,0xbf,0xfd,0xcf,0xff,0x31,0x00, // 12960
0x4c,0x03,0xc0,0xff,0x2a,0x01,0x0a,0xfe, 0x10,0x01,0x62,0x00,0x42,0x01,0x6b,0x00, // 12976
0x1c,0xff,0x06,0x06,0x69,0x02,0xdb,0xfb, 0x6e,0x02,0x89,0x02,0xef,0x01,0xe1,0x00, // 12992
0x8e,0xfd,0x37,0x03,0xb8,0xfe,0xaa,0xfd, 0xdd,0x00,0xec,0xfd,0xf4,0x00,0xd7,0xfd, // 13008
0xe1,0x01,0x55,0xff,0xab,0xfc,0x39,0x03, 0x19,0x00,0x27,0x01,0x70,0x01,0x24,0x05, // 13024
0xdf,0x01,0xed,0xfe,0xbb,0xfe,0x26,0x03, 0x7e,0xfd,0xb3,0xfd,0x03,0xfc,0x09,0x01, // 13040
0x1f,0x00,0x67,0x00,0xf1,0xfe,0x14,0xff, 0xb5,0xfd,0x16,0xfd,0x26,0x02,0xbc,0xff, // 13056
0xeb,0x00,0x43,0x02,0xdf,0x00,0xdf,0xff, 0xb6,0x01,0x61,0xff,0x0a,0x02,0x62,0xfe, // 13072
0x57,0x00,0x24,0x00,0xc1,0xfe,0x6b,0x01, 0xb1,0x00,0x50,0xfe,0xf9,0xfd,0x6b,0xfe, // 13088
0x02,0x02,0x72,0xfd,0xdf,0x00,0xb7,0xfe, 0x42,0xfe,0x8e,0xfd,0x0c,0xfe,0x94,0x00, // 13104
0x68,0xfe,0xca,0x00,0x51,0xfd,0x2c,0x02, 0x63,0xff,0x1d,0xfe,0x20,0xff,0x98,0x00, // 13120
0x84,0x02,0x8e,0xff,0xa2,0x01,0x2e,0xfe, 0xcf,0x02,0x07,0xff,0xbd,0xfc,0xbc,0xff, // 13136
0xc9,0x00,0x7c,0xfe,0xa6,0xfe,0xe7,0xff, 0x2e,0x00,0x96,0x00,0xdc,0x00,0xdf,0x00, // 13152
0xf7,0xfd,0x6a,0xfe,0x0f,0x00,0x82,0x00, 0x96,0x01,0xd7,0xfe,0xf5,0xfe,0x6d,0xfd, // 13168
0x20,0xff,0x21,0xfe,0xcc,0xff,0xa5,0x01, 0x80,0x00,0xda,0x00,0x03,0x03,0x4b,0x00, // 13184
0x4c,0xfd,0x82,0x00,0x67,0xff,0x6e,0xff, 0x86,0xfc,0xb6,0xff,0x7f,0xfe,0x46,0xfe, // 13200
0x4f,0xfc,0xe3,0xff,0xaf,0x00,0x19,0xfe, 0x04,0x03,0x42,0xff,0x8a,0x01,0x36,0x01, // 13216
0x3d,0x01,0xd5,0xfd,0x56,0xfe,0xc2,0x00, 0xfd,0xfd,0x9a,0xff,0xa4,0xfd,0x02,0x00, // 13232
0x46,0xfe,0x82,0x01,0x8b,0xfe,0xf4,0xff, 0xff,0x00,0x58,0xfe,0x9b,0xfd,0x75,0xff, // 13248
0x1f,0x02,0x9e,0x00,0x49,0x02,0xfe,0xfe, 0xa1,0xfd,0xa7,0xfe,0x74,0xfc,0xdf,0xfe, // 13264
0x4a,0x01,0xf5,0xfd,0xcb,0x01,0x3c,0xff, 0xa6,0xff,0x90,0xfd,0x34,0xfe,0xbb,0xff, // 13280
0xdc,0x01,0xcd,0x02,0xfb,0x00,0x6b,0xfd, 0x3e,0xfe,0xc5,0x02,0x60,0xff,0x4e,0xfe, // 13296
0xcf,0x00,0x49,0xfd,0x79,0x00,0x7d,0xfe, 0x88,0x02,0x89,0xfe,0x18,0xfc,0xa3,0x01, // 13312
0x14,0xfe,0x55,0xfd,0xb0,0xfe,0x41,0x00, 0x05,0xfe,0x16,0xff,0xe2,0x00,0xdd,0xfe, // 13328
0xfa,0x02,0x30,0xff,0x92,0xfe,0x2c,0x01, 0xda,0xfd,0x32,0xff,0xae,0x00,0x68,0x02, // 13344
0x46,0x00,0xc5,0x00,0x26,0x01,0x4d,0x03, 0x47,0xfe,0x61,0xff,0xd0,0x00,0x2b,0xfc, // 13360
0x57,0xfe,0x64,0xfd,0x49,0xfd,0x0e,0xff, 0x39,0x00,0xb2,0xfd,0x68,0xff,0x12,0x01, // 13376
0x4b,0x02,0x3a,0xfe,0x97,0xfb,0xd6,0xfd, 0xa8,0xfd,0x4c,0xfe,0x65,0x00,0x6d,0x02, // 13392
0x49,0x01,0x25,0xfe,0x22,0xfd,0x6e,0xfc, 0xa0,0x00,0x0e,0xfe,0xf9,0xff,0xb2,0xfd, // 13408
0xfa,0x00,0x67,0xfe,0xac,0xff,0xb1,0x00, 0x85,0x00,0x8b,0x02,0x16,0xfc,0x79,0x02, // 13424
0x5f,0x03,0xdc,0xfd,0x76,0x00,0x9f,0x01, 0xd9,0x04,0xf8,0x03,0x23,0x03,0x73,0x02, // 13440
0x17,0x00,0x9c,0x02,0x49,0xfd,0xa5,0x01, 0x94,0xfc,0x30,0xfd,0xea,0xfb,0x08,0x00, // 13456
0x5c,0x00,0x8c,0x01,0x32,0x06,0x38,0xfc, 0xa8,0x01,0xb5,0xff,0x6b,0xff,0xd9,0x00, // 13472
0xfa,0xfe,0x6a,0x01,0x36,0x03,0x97,0x04, 0xb2,0x00,0x97,0x01,0xcb,0x02,0xf9,0x01, // 13488
0xab,0xfe,0x6b,0xfc,0xa6,0x01,0x13,0x02, 0xe6,0xfd,0x95,0xff,0xe9,0x02,0x84,0xff, // 13504
0xc6,0x02,0x29,0xfb,0x32,0xff,0x67,0x02, 0x3d,0xff,0xfb,0x01,0x7d,0xff,0xc0,0x00, // 13520
0x60,0x02,0xe3,0xff,0x4f,0x02,0x5f,0x03, 0xbd,0xff,0x99,0xfc,0x45,0xfc,0x0e,0xfb, // 13536
0x40,0x00,0xfa,0xfe,0x9b,0xfd,0x29,0xfd, 0xde,0xfe,0xba,0x01,0x46,0x00,0xa9,0xff, // 13552
0x4c,0xfd,0x5d,0x00,0x97,0x01,0xd2,0x00, 0xb4,0xff,0x9a,0x00,0xf5,0xfe,0x2c,0x01, // 13568
0x8e,0x01,0xc7,0xfe,0x63,0x02,0x10,0x02, 0xe4,0x01,0x6d,0x00,0xa0,0x02,0x93,0x00, // 13584
0x72,0xff,0x91,0xff,0x02,0xff,0x24,0xfc, 0xac,0xff,0x41,0x01,0xc2,0x01,0x0e,0x01, // 13600
0x7b,0xff,0x3c,0xff,0x38,0x01,0x77,0x01, 0x6c,0x01,0x1d,0xfd,0x60,0x00,0x80,0xfe, // 13616
0x69,0xff,0x84,0x00,0x0f,0xfd,0xb5,0xfc, 0x85,0x01,0x0a,0x01,0x82,0x00,0x77,0xfe, // 13632
0xc9,0x01,0x11,0x00,0x14,0xff,0x28,0xff, 0x65,0x02,0xd7,0x01,0x73,0x01,0x5e,0x01, // 13648
0x2c,0x00,0x0d,0xfe,0x9d,0xfd,0x1b,0xfd, 0xa5,0xfd,0x28,0xfd,0x9a,0xfc,0x28,0xff, // 13664
0x63,0x01,0x60,0x01,0x07,0x03,0xc6,0x00, 0x8d,0x01,0x03,0x03,0x87,0xfe,0x88,0xfd, // 13680
0xea,0xff,0xa6,0x01,0x9e,0xfe,0x37,0x02, 0xd2,0xfc,0x5f,0xfd,0x6b,0xfe,0x1d,0xff, // 13696
0xc8,0x02,0x20,0xfc,0x8d,0x00,0x64,0x00, 0xc5,0x01,0xe2,0xfe,0x97,0x02,0x0d,0x02, // 13712
0x6d,0x01,0xa9,0x01,0xd7,0xfd,0x72,0xfe, 0xe1,0x00,0x54,0x00,0x5b,0xfe,0xe9,0xfd, // 13728
0x72,0xff,0xb5,0xff,0x54,0xfe,0x25,0xff, 0x56,0xff,0xab,0x01,0xbf,0xfe,0x42,0xfc, // 13744
0x79,0x01,0xa3,0xff,0x16,0xfd,0x8f,0xfd, 0xfb,0xfd,0x1c,0x01,0xaa,0xfe,0xbc,0x02, // 13760
0xfc,0xfd,0x19,0xff,0x78,0xfc,0x3e,0x01, 0xca,0x01,0xc4,0xfc,0xdd,0xff,0x81,0xfe, // 13776
0x58,0xfe,0x5d,0xff,0x43,0xfd,0x43,0xff, 0x67,0xff,0xe2,0x01,0xf8,0xff,0xb6,0x00, // 13792
0x6b,0xfb,0x2f,0xff,0xa4,0xfe,0xf3,0xfe, 0x52,0xfd,0x98,0x02,0xb4,0xff,0x8f,0xfe, // 13808
0x0a,0xff,0x6c,0x01,0x5f,0xfd,0x09,0x01, 0x40,0xfe,0xb0,0xff,0x42,0xfd,0x40,0xfd, // 13824
0xac,0xfd,0xbd,0xfd,0x36,0x01,0x1c,0x00, 0x10,0xfe,0xa8,0x02,0x57,0x00,0x3d,0xff, // 13840
0x9f,0xff,0x6e,0x01,0x84,0xfc,0x0d,0x00, 0x7b,0x02,0x90,0x00,0xe4,0xfd,0x23,0xfe, // 13856
0xf6,0x00,0x1e,0x01,0x18,0x01,0x2a,0x01, 0x63,0xff,0x3c,0x01,0xda,0xfd,0x0b,0x01, // 13872
0x35,0x01,0xea,0xff,0xe0,0xfd,0xea,0xfd, 0x47,0x01,0x4e,0x00,0x6f,0xfe,0x1f,0xff, // 13888
0x8c,0x02,0xf7,0xfe,0x99,0xfc,0x86,0x01, 0x25,0x00,0xd5,0xff,0x3e,0xff,0x83,0xfd, // 13904
0xe4,0xfc,0x13,0x02,0xf6,0x00,0xd6,0xfd, 0xd2,0xff,0x58,0x00,0xa1,0xfd,0x0b,0xfe, // 13920
0x0e,0xff,0x72,0x00,0x38,0xff,0x9e,0xfd, 0x36,0xfe,0x98,0x02,0x04,0x03,0xa0,0x00, // 13936
0xe6,0xfe,0x42,0xfe,0xc5,0xfd,0xe4,0xff, 0x29,0x00,0x05,0x01,0x61,0xff,0xf4,0xfe, // 13952
0x26,0xff,0x07,0xfe,0x6d,0x00,0x02,0x00, 0xc8,0xfe,0x00,0x00,0x09,0x00,0x80,0xfd, // 13968
0x1c,0x01,0xdf,0xfe,0x3f,0x02,0x23,0x00, 0xcb,0x02,0x28,0xfd,0x07,0x02,0x57,0xfe, // 13984
0xd5,0xff,0x0f,0x01,0x91,0xfe,0x5e,0x00, 0xfe,0x00,0xa9,0xfd,0x94,0x02,0x2e,0xfd, // 14000
0xae,0xfe,0x52,0x02,0x0f,0x02,0xa0,0x00, 0x0a,0xfe,0xbd,0xfe,0xcc,0xfe,0x38,0xfe, // 14016
0xa0,0xff,0x53,0xff,0xc9,0xfd,0x43,0xfd, 0x20,0x02,0x8e,0xff,0x09,0x00,0x4a,0x01, // 14032
0x6b,0xff,0xa8,0xfd,0x48,0xfe,0x45,0xfe, 0x9a,0xfe,0xf7,0x00,0x7e,0xfd,0x3b,0x02, // 14048
0xf5,0x01,0x05,0x01,0x47,0xfe,0xac,0xff, 0xa8,0xff,0xc6,0x01,0xe4,0x01,0x52,0xff, // 14064
0x21,0xfe,0xd2,0xfd,0x48,0xfe,0x06,0xfd, 0x23,0x02,0xb5,0xff,0x38,0x02,0x11,0x00, // 14080
0x34,0xff,0x0c,0xfe,0x3b,0xfe,0x34,0x00, 0x3f,0xff,0xe0,0xfd,0x8a,0x00,0xeb,0x00, // 14096
0x62,0x02,0x21,0x01,0xe9,0x01,0x9d,0x00, 0x77,0x01,0x4b,0xff,0x8a,0x01,0x23,0xfe, // 14112
0x99,0xff,0x75,0x00,0x37,0xfe,0x57,0xfd, 0xac,0x00,0x31,0xfe,0x18,0xfe,0x8a,0x00, // 14128
0x2d,0x02,0x02,0xfe,0x5a,0x00,0x55,0xfe, 0x16,0xfe,0x20,0x01,0x31,0xff,0x01,0x01, // 14144
0x93,0xfe,0x32,0x02,0x0d,0x00,0xb7,0xfe, 0x81,0xff,0xab,0xfe,0x04,0xfe,0x24,0xff, // 14160
0xb2,0xfd,0x54,0x00,0x06,0x01,0x2a,0x01, 0x3a,0x00,0x65,0xff,0x1c,0xff,0x18,0x00, // 14176
0x48,0xfd,0x86,0xff,0x87,0x01,0x7e,0xfe, 0xa3,0xfd,0xea,0xfe,0xed,0xfd,0x57,0x02, // 14192
0x2c,0x01,0xa1,0x00,0xa1,0xff,0xfc,0x00, 0x69,0x01,0xd7,0x00,0xcb,0xfd,0x0a,0x02, // 14208
0x49,0x03,0xe4,0x00,0xa7,0xfe,0x67,0xfd, 0x76,0xfc,0x5d,0x00,0xb2,0x00,0x47,0x02, // 14224
0x61,0xff,0x4e,0xff,0x92,0x05,0xe4,0xff, 0xc9,0x01,0x42,0x00,0xdf,0xfe,0x49,0x00, // 14240
0x5f,0xfe,0xd7,0xff,0x0c,0xfe,0xcc,0xfe, 0x41,0x03,0xc4,0xfe,0x5f,0xff,0xc2,0xfd, // 14256
0xc2,0xff,0xab,0xf7,0x28,0x02,0xd1,0x00, 0x61,0xfd,0x2b,0x02,0x03,0x01,0xc2,0x01, // 14272
0x89,0xfd,0xb3,0xff,0xe6,0xfe,0x75,0xff, 0x20,0xfe,0x92,0xfe,0xfd,0x02,0xd1,0x01, // 14288
0xce,0x01,0x6e,0xf9,0x8c,0xfc,0x4c,0x02, 0x10,0xf3,0xd6,0xfe,0xa9,0xfb,0x88,0xfd, // 14304
0x1f,0xff,0xe3,0x01,0x6a,0xfe,0x63,0xfd, 0xfb,0xfc,0x93,0xfe,0x3a,0xfa,0x02,0xff, // 14320
0x35,0xfe,0x8d,0xfe,0xcc,0x01,0x32,0x02, 0xfd,0xfe,0xd9,0x00,0xbf,0x00,0x60,0xff, // 14336
0x52,0xfd,0x4a,0x01,0x20,0x01,0x12,0x02, 0x7f,0x01,0xba,0xff,0xb5,0xfe,0x70,0xfe, // 14352
0xb5,0xfe,0x5e,0x01,0xa6,0xfb,0xda,0xfe, 0x41,0xff,0xa9,0xfc,0x5c,0xfb,0x41,0xfd, // 14368
0xac,0xfe,0x41,0x02,0x81,0x01,0x9d,0xfc, 0xdc,0x02,0x45,0x01,0x0a,0x00,0x30,0x01, // 14384
0x5a,0xfd,0x33,0x00,0x9c,0x01,0x31,0xfd, 0x0e,0xfe,0xf4,0x01,0x13,0xff,0x77,0xfd, // 14400
0xf9,0xfe,0xba,0xfd,0xa4,0xfe,0x0e,0xfe, 0x4a,0x01,0x9a,0x00,0xb3,0xfe,0x2a,0x02, // 14416
0x0c,0x00,0xf4,0x00,0x9d,0xff,0x0a,0x01, 0xe8,0x00,0xc9,0x00,0xaf,0xfd,0x8f,0xfd, // 14432
0x45,0x01,0x94,0xff,0xc5,0xfe,0x45,0x02, 0x86,0x01,0x29,0xfe,0xc8,0xfe,0x15,0x02, // 14448
0xb1,0xfe,0x07,0x00,0x84,0x03,0x70,0xff, 0xb1,0x00,0xec,0xfd,0xa5,0xfd,0x15,0x00, // 14464
0x34,0x03,0x77,0x01,0xe2,0xfe,0xfa,0xff, 0xa1,0x01,0xc0,0x03,0x76,0xfd,0x95,0x04, // 14480
0xb9,0x01,0xf8,0xff,0x28,0x01,0x7d,0xff, 0x31,0x01,0x1a,0xfd,0x69,0xfd,0x32,0xff, // 14496
0xbc,0x05,0xcc,0xff,0x90,0xf9,0x35,0x00, 0x78,0x01,0x86,0xff,0xed,0xff,0xaa,0x04, // 14512
0x97,0x01,0x03,0x04,0x51,0xfa,0xa6,0xfd, 0x2b,0xff,0xce,0xff,0xc7,0x01,0xe5,0xfe, // 14528
0x41,0xfd,0x0a,0x03,0x4e,0x02,0xe2,0xfd, 0x51,0x01,0x67,0xfc,0x56,0xff,0x99,0x00, // 14544
0xf5,0x01,0x9d,0xff,0xab,0x04,0x32,0x03, 0x8b,0x00,0xa3,0x01,0x4f,0xff,0x41,0x03, // 14560
0xb2,0xff,0xb1,0xff,0xff,0x01,0xd5,0xff, 0x9b,0x01,0x74,0xfe,0xda,0x01,0xc1,0xfe, // 14576
0x72,0xfd,0x39,0xfd,0xea,0xfb,0xf3,0x00, 0xd1,0xfd,0x8d,0x00,0x7c,0xfd,0x76,0xff, // 14592
0x30,0x02,0x5d,0x00,0x2b,0xfd,0x00,0xff, 0x02,0x01,0x6b,0xff,0xb4,0x00,0x4e,0x00, // 14608
0x9b,0xfe,0x27,0xff,0x62,0xfd,0xa2,0x00, 0x92,0x00,0xc6,0xfd,0x95,0xfb,0x17,0x00, // 14624
0x2f,0xfe,0x2f,0xff,0x1f,0xfd,0xd8,0xfe, 0x69,0xff,0x12,0xfe,0xb4,0x01,0x0e,0x02, // 14640
0xff,0xfd,0x77,0x00,0x82,0x02,0xf7,0x00, 0x81,0x00,0x45,0x02,0x4d,0xff,0x9a,0xff, // 14656
0x68,0x01,0x31,0x03,0x4b,0x00,0x3f,0x02, 0x55,0x02,0x83,0x01,0xf0,0xff,0xe3,0x00, // 14672
0x4a,0x01,0x12,0xfd,0xa4,0x01,0x74,0x00, 0xea,0xff,0x5c,0xfd,0xaf,0xff,0xff,0xfe, // 14688
0xad,0xfe,0x9d,0x00,0xd1,0xff,0x72,0x00, 0x81,0xfd,0xf1,0x01,0x80,0xfc,0xc7,0x00, // 14704
0xfb,0xfb,0xa6,0x00,0x2e,0x00,0xee,0xff, 0x1d,0xff,0xde,0xff,0xa6,0xfd,0xdd,0xf9, // 14720
0x4b,0x00,0x8d,0xfd,0x23,0x03,0x7f,0x00, 0x51,0xfc,0xf6,0x01,0x8f,0xfe,0x92,0x00, // 14736
0xcc,0xfd,0xe0,0x00,0x23,0x02,0xb8,0xfd, 0xbd,0xff,0xe2,0x02,0x04,0x00,0x42,0xfd, // 14752
0x55,0xff,0xa2,0xff,0x13,0x01,0x72,0x01, 0x4e,0xfe,0xe7,0x01,0xf1,0xfe,0xbc,0xff, // 14768
0xfa,0xfa,0x6a,0xfd,0x30,0xff,0x70,0x01, 0xb6,0xf8,0x25,0xfb,0x95,0x00,0x77,0xff, // 14784
0xd8,0xfe,0xe6,0xfb,0x63,0x00,0xca,0x00, 0x2c,0x00,0x74,0xff,0x2f,0xfd,0x8e,0xff, // 14800
0xc1,0xfd,0x31,0xfe,0x4f,0x03,0xe9,0xff, 0x11,0x00,0x52,0xff,0xcc,0xfd,0x2a,0xff, // 14816
0x08,0x02,0xda,0x02,0xbf,0xfb,0xe3,0x00, 0xfb,0x00,0x28,0xfe,0x51,0x01,0xdc,0x00, // 14832
0x0a,0x01,0x11,0xfd,0xeb,0x00,0x6b,0x01, 0xb6,0xfe,0x61,0xfe,0x23,0xff,0x3f,0x00, // 14848
0xe0,0xfc,0x7a,0x01,0xf2,0xfa,0xdb,0xfe, 0x83,0xfc,0xe0,0x02,0x3c,0xfe,0xb6,0xfd, // 14864
0xd9,0xff,0xf7,0xfb,0x35,0xfd,0x5b,0xfe, 0xe7,0xff,0x03,0xfc,0x8c,0xff,0x1f,0x00, // 14880
0xad,0x03,0x21,0xff,0x94,0x01,0x08,0xfe, 0xa5,0x02,0x8c,0xfe,0x5f,0xff,0x8f,0xff, // 14896
0xfa,0x01,0x63,0x00,0x55,0xfc,0x3c,0x00, 0xff,0x01,0x10,0x00,0x94,0x00,0x35,0x00, // 14912
0x61,0xff,0x00,0xff,0x78,0xfd,0xc2,0x01, 0x57,0xfd,0x18,0x00,0x81,0xfd,0xb1,0x00, // 14928
0x1e,0x01,0x51,0x00,0x7a,0xfe,0xc8,0xff, 0xb8,0x01,0x4b,0xfd,0x1a,0x01,0xae,0xfc, // 14944
0x88,0x01,0xe0,0x02,0x14,0xff,0x56,0xfe, 0xf8,0xfe,0x77,0xff,0x99,0x01,0x80,0x00, // 14960
0xf7,0x00,0xa1,0xff,0xbb,0x01,0x0f,0xff, 0x69,0x00,0xe6,0xfd,0x4c,0xff,0xe1,0xfc, // 14976
0x2a,0x02,0x34,0x01,0x6a,0xfd,0x6e,0x00, 0x05,0x01,0xf3,0xfd,0x34,0x00,0xfb,0xfd, // 14992
0x1d,0xff,0x70,0x02,0xe3,0x00,0x1a,0x01, 0x63,0xfe,0x79,0xfc,0x4f,0xfd,0x03,0xff, // 15008
0x00,0x03,0x8c,0x01,0xe6,0xfd,0xfe,0xff, 0x71,0x00,0xe4,0xfb,0xda,0xfd,0xd7,0x01, // 15024
0xf0,0x00,0x73,0xff,0x00,0x02,0xef,0x00, 0x90,0x00,0xd1,0xfe,0xfb,0xff,0x2d,0xfe, // 15040
0xb3,0xfd,0x70,0xfe,0x4e,0xfd,0xae,0x00, 0x2e,0xfd,0x45,0xff,0x79,0x01,0x6c,0xfe, // 15056
0x4d,0xff,0x93,0x00,0x44,0x01,0x5d,0x00, 0x81,0xff,0xb5,0x00,0x4e,0x01,0x96,0x00, // 15072
0xb3,0x00,0xcb,0xff,0xd9,0xfd,0x94,0xff, 0xe0,0x01,0x5f,0x01,0x7d,0xff,0x6e,0xfc, // 15088
0x6c,0xff,0xd6,0x01,0x4c,0x00,0x1a,0xfe, 0xfd,0xfe,0x61,0xfe,0xc9,0x03,0x11,0x06, // 15104
0x89,0xfe,0x39,0x04,0x62,0x00,0x9d,0x02, 0xce,0xfd,0x87,0xff,0xa6,0xff,0x59,0x02, // 15120
0x9e,0x03,0x72,0xfe,0xee,0x01,0x0b,0xfe, 0x93,0x00,0x54,0x05,0x9c,0x01,0x3e,0xfe, // 15136
0x2a,0x04,0xc1,0xff,0xdc,0x00,0x38,0x03, 0x8f,0xfe,0x4b,0xfe,0x1a,0x00,0x77,0x01, // 15152
0x77,0x02,0x15,0xfa,0xaf,0xf7,0xb6,0xff, 0x9a,0x03,0xb1,0xfd,0x0b,0xfa,0x8c,0xfd, // 15168
0x02,0x02,0x93,0x00,0xbb,0x04,0xf6,0x00, 0xc4,0x00,0xc0,0xfd,0x9b,0x03,0xb7,0xfc, // 15184
0x76,0x00,0xb5,0xfa,0x28,0xfe,0x8b,0xfe, 0xcc,0xfd,0x70,0xfe,0x63,0x01,0xe9,0xfe, // 15200
0xc9,0xfe,0xe0,0x02,0x7c,0x02,0xc4,0xfd, 0xea,0x00,0xc5,0x01,0xa3,0x05,0xcc,0xfd, // 15216
0x44,0xfd,0x6a,0xfe,0x25,0xfd,0x0e,0x02, 0x98,0x00,0x12,0xfe,0x7f,0xfe,0x17,0x00, // 15232
0xe9,0x02,0xf5,0xfd,0x0b,0xff,0x7b,0xfd, 0x2e,0xfd,0xf0,0xfe,0x6d,0xff,0xbc,0xfb, // 15248
0xc6,0x02,0x36,0x03,0x16,0x01,0x22,0x01, 0xbf,0x00,0xa8,0xff,0x87,0x00,0xf4,0xff, // 15264
0xd6,0x01,0x2d,0x03,0xfe,0xfb,0x7b,0xff, 0x66,0xfe,0x42,0x01,0x78,0x01,0x8f,0xfe, // 15280
0x1c,0x02,0x7e,0xff,0xd6,0xfc,0xa2,0x02, 0x02,0x01,0x7d,0x01,0x68,0xfe,0x94,0x01, // 15296
0x72,0x02,0x54,0xff,0x2d,0x02,0x0d,0xfd, 0x0f,0xfe,0x13,0xfe,0x8a,0xff,0x88,0xfe, // 15312
0xd8,0xfd,0x3c,0x02,0x7f,0xff,0x79,0xfd, 0x16,0xfc,0x8b,0x01,0x8c,0xfd,0x33,0xff, // 15328
0x61,0xfd,0xe7,0xfd,0xc4,0xfe,0x5d,0xff, 0x59,0x01,0x35,0x00,0xb0,0xfc,0xc9,0x00, // 15344
0xe1,0x03,0xf3,0x00,0x31,0x05,0x4e,0x01, 0x8f,0x03,0xfd,0xff,0xb6,0xfc,0xbb,0x00, // 15360
0x1e,0x02,0x17,0x01,0xe5,0xfd,0x79,0xfe, 0x65,0x02,0x8f,0xff,0xde,0x02,0xa9,0xfb, // 15376
0xa4,0x00,0xc3,0xfe,0xfb,0xff,0x05,0xfe, 0xec,0xfd,0xbb,0xfb,0xfa,0x00,0xa3,0xff, // 15392
0xf0,0xfb,0xb1,0xff,0xcb,0x02,0x36,0xfe, 0x35,0x05,0xbb,0xfe,0xed,0x02,0xeb,0xfa, // 15408
0xcd,0xfe,0x0e,0xfc,0xb2,0x03,0x7f,0x03, 0xeb,0xf8,0x34,0x01,0xe1,0x03,0x80,0x03, // 15424
0x4e,0xfd,0xf0,0x00,0xe5,0xfa,0x3d,0xff, 0x7d,0xff,0x5a,0x01,0x71,0xff,0xfb,0x00, // 15440
0x06,0x01,0x6f,0xff,0xc2,0xfc,0x15,0xfc, 0xed,0xf9,0x60,0x02,0x5b,0x00,0x42,0xfa, // 15456
0xf1,0xfb,0x92,0x01,0x83,0xfd,0x1c,0xff, 0x98,0xff,0x2d,0x03,0x75,0xf8,0x55,0xfe, // 15472
0xe2,0xff,0x7a,0x02,0x17,0x01,0x51,0x01, 0x06,0xff,0x6e,0x00,0xe1,0xfe,0x0b,0x00, // 15488
0x96,0xfd,0x0a,0xfe,0x97,0xfd,0x08,0x02, 0x98,0x02,0x30,0xfe,0x97,0x01,0xda,0x00, // 15504
0xd2,0x00,0x75,0xfe,0x0a,0xfd,0x98,0xfe, 0xd0,0x00,0xc5,0xfe,0x95,0x00,0x8d,0x01, // 15520
0x2a,0xff,0x24,0x01,0xba,0xfd,0x32,0x02, 0xae,0xff,0x9a,0xfe,0x28,0x02,0xa7,0xfe, // 15536
0x0c,0x01,0x26,0x00,0xe3,0x00,0x3e,0x02, 0x73,0x00,0xa3,0x00,0xc4,0xfc,0xa7,0xfd, // 15552
0x51,0xfd,0x9f,0xfd,0x27,0xff,0xaf,0xff, 0xd1,0xff,0x08,0xfd,0xde,0xfd,0xbf,0x00, // 15568
0xb7,0xfe,0x3e,0x00,0x2f,0xfe,0x13,0x01, 0xb5,0xfc,0xb5,0xfd,0x4b,0xfd,0x4f,0xff, // 15584
0x07,0xfc,0x42,0xfe,0x4f,0x03,0xcd,0x00, 0x96,0x02,0xff,0xfc,0x06,0x01,0x06,0x00, // 15600
0xc8,0xfe,0xf0,0xfd,0xd4,0xff,0xe3,0x01, 0x2b,0xff,0xe7,0xfe,0x26,0x02,0x50,0x00, // 15616
0x0e,0x00,0x02,0xfe,0xa4,0xfd,0x60,0x01, 0x97,0xfe,0xea,0x01,0x1a,0x01,0x45,0x01, // 15632
0x04,0xfe,0x2f,0x03,0x1f,0xfe,0x06,0xff, 0x32,0x00,0xd8,0xfc,0xba,0xfd,0x35,0xfd, // 15648
0xab,0xff,0x0b,0xff,0x92,0x01,0x5a,0x01, 0x46,0x01,0xdf,0xff,0x7a,0xfd,0x85,0x01, // 15664
0xe7,0xff,0x72,0xfb,0xa8,0x00,0x2a,0x01, 0xb5,0xfd,0x24,0xff,0xb4,0xfd,0x52,0x00, // 15680
0xbf,0x00,0xd0,0xfd,0xd9,0xfd,0x01,0x02, 0x38,0xfe,0x1e,0x01,0xf3,0x00,0x0d,0xff, // 15696
0x9f,0xfe,0x09,0xfe,0x65,0x01,0x8e,0x00, 0xc6,0x01,0xf6,0xfe,0x8e,0xfd,0x6c,0x00, // 15712
0xd4,0x01,0x0b,0x02,0x3b,0xfb,0xfc,0xfd, 0xd4,0x01,0xb7,0xfe,0x95,0xfc,0x83,0xff, // 15728
0x38,0xfd,0x65,0xff,0x4b,0x00,0x0f,0xfe, 0x2f,0xff,0x5d,0x01,0x9f,0xfd,0x37,0xfc, // 15744
0x8b,0x00,0x7c,0xff,0x72,0xfd,0xfe,0xfe, 0xf5,0xfd,0xc1,0x01,0x94,0x00,0x07,0x00, // 15760
0xb7,0x01,0x42,0x01,0xfe,0xfd,0x27,0xff, 0x4e,0xfd,0x9c,0x01,0x2e,0x01,0x53,0xff, // 15776
0x62,0x00,0xb2,0xfe,0xe8,0x01,0xdd,0x02, 0x22,0xfe,0xe8,0xfe,0x88,0xff,0x02,0x00, // 15792
0xa0,0x01,0x14,0x02,0x7c,0xfd,0x28,0x01, 0x34,0x01,0x8d,0x00,0x5c,0xfd,0xe6,0xfd, // 15808
0x6a,0x00,0xe5,0xfe,0x30,0xfe,0x3c,0x02, 0x18,0x01,0x29,0xff,0xb9,0xff,0xde,0x01, // 15824
0xbb,0xfc,0x58,0x02,0x2b,0xfe,0xef,0xfc, 0x94,0xfe,0xbb,0x00,0x1a,0x00,0xc0,0xfe, // 15840
0x29,0x01,0x27,0x01,0x92,0xfc,0xbe,0x01, 0xed,0xfe,0x72,0xff,0x71,0x00,0x5a,0x01, // 15856
0x56,0xfc,0x97,0x00,0x3d,0x05,0x77,0xfe, 0xde,0xfb,0x11,0xfe,0xcb,0xfb,0x53,0x00, // 15872
0xcb,0x01,0x71,0x03,0x21,0xfe,0xd0,0x00, 0xfe,0xfd,0xe4,0x06,0xb7,0xff,0x6a,0xfe, // 15888
0x24,0xfd,0x06,0xfe,0x9c,0x01,0xac,0xfe, 0xfd,0x02,0x3a,0x00,0x91,0xfc,0xbd,0x00, // 15904
0xbc,0x06,0x91,0x02,0x0e,0xfb,0xd1,0x02, 0x34,0x00,0xae,0xfd,0x66,0xfe,0x05,0x00, // 15920
0xfc,0xff,0x7e,0x04,0xad,0xff,0x10,0xfe, 0x28,0x03,0x5e,0x00,0x76,0xfe,0xe6,0xff, // 15936
0xc7,0xfd,0x52,0xff,0xb4,0xfe,0xa8,0xff, 0x98,0xff,0xde,0xff,0x91,0x00,0x11,0xfd, // 15952
0x32,0x03,0x3d,0x03,0x25,0x01,0x7b,0x01, 0x21,0xfe,0x05,0x03,0xfb,0x01,0xd3,0x01, // 15968
0x78,0x02,0x6c,0xff,0x6b,0xff,0xfe,0x04, 0xc7,0xfd,0xe5,0x00,0x07,0x03,0x5c,0x01, // 15984
0xf0,0xff,0x7d,0xfd,0xd5,0xfd,0x69,0xff, 0x64,0x01,0x6c,0x00,0xff,0x00,0xc9,0xff, // 16000
0xea,0xfd,0x5a,0xfe,0x3c,0xfd,0xd4,0x01, 0x63,0xfd,0x7d,0xfd,0x02,0x01,0x01,0xfe, // 16016
0x3b,0xff,0x4b,0xfe,0x99,0x01,0x50,0x01, 0xdb,0xff,0xcc,0xfe,0x3e,0x00,0x9e,0xfd, // 16032
0x76,0x01,0xf0,0xfe,0xe1,0x01,0x9c,0xff, 0x66,0x01,0xe5,0xff,0xd3,0x00,0x9b,0xfe, // 16048
0x2b,0xff,0x5e,0xfd,0xf7,0x00,0xee,0xfc, 0x38,0x02,0xec,0xff,0x11,0xfd,0x35,0x02, // 16064
0x32,0xfe,0x95,0x00,0xec,0x01,0x7c,0x00, 0xf0,0x00,0x04,0xfd,0xb7,0xff,0xd3,0xfc, // 16080
0x34,0xfd,0xf0,0x00,0x98,0x01,0x36,0x02, 0x59,0xff,0xd9,0xfe,0x3f,0x01,0x45,0xfe, // 16096
0x06,0xfe,0xa1,0xff,0x3d,0xff,0x9e,0x00, 0x77,0xfe,0xe6,0xfd,0x8f,0x01,0x1f,0x00, // 16112
0xe0,0xff,0x4b,0xff,0x19,0x01,0x09,0x01, 0xc4,0xfe,0x8a,0x03,0x3f,0x08,0xbb,0xfd, // 16128
0xd2,0xff,0xdc,0xfc,0x45,0xfd,0xed,0xfd, 0xd6,0xfb,0xe8,0xfa,0x75,0xf9,0xc9,0x04, // 16144
0x3d,0x01,0xc2,0x01,0x65,0x05,0x67,0xfe, 0x4e,0xfd,0xfe,0x03,0xa2,0x02,0xa2,0xfd, // 16160
0x3a,0x02,0x8f,0x02,0x79,0x02,0x64,0x03, 0x3b,0x02,0x1d,0xfc,0x4f,0x00,0x74,0xfe, // 16176
0x08,0xfe,0x70,0xfd,0x23,0xff,0x4c,0xfe, 0x52,0x01,0x9e,0xfe,0x58,0x01,0xea,0xff, // 16192
0xb4,0xff,0xd5,0x00,0x87,0xfe,0x31,0xfd, 0x57,0x02,0x69,0xfc,0xe8,0xff,0x87,0xfe, // 16208
0x5b,0x02,0x3c,0xfe,0x29,0xfe,0x89,0x02, 0x68,0xfd,0xbd,0xfb,0xe9,0xfe,0xa1,0x02, // 16224
0xd0,0xfd,0xcb,0xfd,0xe5,0x01,0x54,0xfe, 0x9a,0xfe,0xee,0xfe,0x71,0x02,0x8c,0x01, // 16240
0x8a,0x01,0x7b,0x02,0xfc,0x02,0x1f,0x03, 0x40,0xfc,0xbd,0x01,0x79,0xfe,0x35,0xfe, // 16256
0x51,0xfd,0xe1,0x03,0x5e,0xfd,0x0b,0x00, 0xaf,0x02,0x8b,0x01,0x52,0x03,0xf4,0xfc, // 16272
0x52,0xfe,0x40,0x00,0x80,0xfb,0x45,0xfe, 0xb3,0xfd,0x2b,0xff,0x20,0xff,0x98,0xfe, // 16288
0x79,0x01,0xa7,0x02,0x44,0xfc,0x35,0x01, 0x95,0x02,0xe2,0xfd,0x59,0x02,0xd3,0xff, // 16304
0x09,0xfe,0x69,0x00,0x1d,0xfc,0x8b,0xfe, 0x71,0xfe,0x93,0x02,0xaa,0x02,0x81,0xfe, // 16320
0x6e,0x02,0x27,0x00,0xfe,0x00,0x80,0x01, 0xb5,0x00,0xf3,0xfc,0x3f,0x01,0xd5,0xff, // 16336
0xe7,0xfe,0x20,0xfe,0xfa,0x01,0x1e,0xfe, 0x19,0xfc,0xcd,0x00,0x8c,0xfe,0x6b,0x04, // 16352
0x42,0x00,0xd7,0xff,0x0b,0x03,0x6c,0x01, 0xc0,0xfd,0x80,0xfd,0xfb,0xff,0x10,0xff, // 16368
0x8c,0x00,0xea,0xff,0x93,0x06,0xee,0xfe, 0xd8,0xfb,0x04,0x01,0x40,0xfd,0x1e,0xfd, // 16384
0x0c,0x03,0x86,0x02,0xf8,0xfd,0x34,0xfe, 0x10,0xfe,0xc0,0x05,0xde,0xfe,0xa1,0x00, // 16400
0x21,0x03,0xd6,0x01,0x10,0xfe,0xd1,0xfe, 0x7f,0xfd,0xec,0xff,0xbb,0x01,0x8b,0xfe, // 16416
0x8c,0x04,0xd3,0xfd,0x40,0xfb,0x75,0xfd, 0xec,0x01,0x5b,0x04,0xe0,0x01,0x3f,0x00, // 16432
0x23,0x00,0x88,0x01,0x72,0xf9,0xd1,0xfc, 0x8e,0x00,0x59,0xfb,0x2d,0xff,0x99,0x00, // 16448
0x3e,0xff,0x45,0x00,0x4c,0xfc,0xcf,0xff, 0xc7,0xfd,0x76,0xfa,0x99,0xfd,0x13,0xff, // 16464
0x25,0x03,0x8f,0xff,0x18,0x00,0xd2,0x02, 0xb1,0x00,0xfe,0x03,0xd3,0x04,0xc9,0x03, // 16480
0x5d,0x01,0xb9,0xff,0x6b,0x03,0x6c,0x02, 0x83,0x02,0x29,0xfd,0x24,0x00,0x07,0xfc, // 16496
0x2c,0x00,0x7e,0xfe,0x19,0xfe,0x9e,0x02, 0x3c,0xff,0x70,0x00,0x39,0xfd,0xa8,0x02, // 16512
0xb1,0xfd,0x18,0xfe,0xb4,0x00,0x9a,0x00, 0xea,0x00,0xca,0xfc,0x3a,0xfe,0xc2,0xfd, // 16528
0xc0,0x01,0x6b,0x02,0x9d,0xfe,0x27,0x02, 0x76,0xff,0xfc,0xfd,0x1b,0x00,0xa7,0x01, // 16544
0x4c,0x02,0x7c,0xfe,0x56,0xfe,0xc2,0xff, 0x55,0xfe,0x53,0xfd,0xbe,0xfd,0xb0,0xff, // 16560
0xa2,0xfd,0xe4,0xff,0xf4,0x00,0x8e,0x01, 0x88,0x01,0xa8,0x00,0x96,0x00,0xd8,0xfe, // 16576
0xf1,0xfe,0xa8,0xfe,0x16,0xfe,0x1b,0x00, 0x95,0xfe,0x1f,0xfe,0x0d,0xff,0x76,0xfd, // 16592
0x63,0xff,0x13,0xff,0xe1,0xfc,0x56,0x01, 0x84,0xfe,0xfa,0x00,0xcc,0xff,0x14,0xfe, // 16608
0x29,0xfd,0xbe,0x02,0x95,0x01,0x2a,0x01, 0xd8,0x01,0x58,0xfe,0x8e,0xff,0x04,0xfd, // 16624
0xf4,0xfe,0xc4,0xfc,0xb7,0x01,0x13,0xfe, 0xbe,0x00,0xfb,0x00,0x2f,0xff,0x6e,0xfd, // 16640
0x7e,0x02,0x2d,0xff,0xc4,0xfc,0xb1,0x00, 0x59,0xfe,0x10,0xfd,0x9d,0x01,0xda,0xff, // 16656
0x06,0x01,0x8d,0x00,0xef,0x00,0xa6,0x00, 0xd4,0xfd,0x68,0xfb,0xfb,0xfc,0xea,0x01, // 16672
0xc1,0x00,0x5c,0xff,0x03,0x01,0xed,0xff, 0xcb,0x01,0x6f,0xfe,0x6a,0x01,0x65,0x00, // 16688
0x38,0x00,0xa6,0x02,0x16,0xfd,0x8c,0x00, 0x68,0xff,0x70,0x01,0x26,0xff,0xf8,0x01, // 16704
0x4a,0x01,0xf0,0xfb,0x68,0x00,0x61,0xfe, 0xf8,0xfe,0xd3,0xfd,0x43,0x01,0x30,0x00, // 16720
0xe4,0x01,0xbe,0xff,0x02,0xfe,0x48,0xfe, 0x37,0x00,0xde,0xff,0x48,0xff,0x17,0xfe, // 16736
0xc4,0xfe,0xf5,0xfc,0xc3,0x01,0xa9,0x01, 0x71,0x02,0x87,0xff,0x46,0xfd,0xf1,0x02, // 16752
0x99,0x01,0x9f,0xfd,0xf1,0xfe,0x75,0xfd, 0x7e,0x00,0x2b,0xfd,0x05,0x00,0xb6,0xff, // 16768
0x7e,0x02,0x4a,0xfe,0x4f,0xff,0x0b,0xfe, 0x08,0xff,0x85,0xfd,0xba,0x01,0x0d,0x00, // 16784
0xf7,0xfd,0x82,0xfd,0xa2,0xfc,0x4c,0x02, 0x6a,0xfd,0xd1,0xfc,0x5b,0xfc,0xad,0x01, // 16800
0xec,0xfd,0xe0,0x00,0xf9,0x00,0xdd,0xfe, 0x50,0xff,0x69,0x00,0xed,0xfe,0xed,0x00, // 16816
0xe7,0xfd,0x6e,0xff,0x44,0x00,0xa7,0xfe, 0x32,0xfe,0xc5,0xff,0x99,0xff,0x3d,0x01, // 16832
0xdd,0xfe,0xa8,0xfe,0xeb,0xff,0xb7,0x00, 0x12,0x02,0xb4,0x00,0xa5,0xfe,0x28,0xff, // 16848
0x15,0x00,0x3c,0xfe,0xf9,0xff,0x15,0x00, 0x73,0x01,0xf4,0xff,0x99,0xfd,0xd3,0xfd, // 16864
0xeb,0xff,0x44,0x00,0x5f,0x01,0x5b,0x02, 0x6c,0xfd,0xb5,0x01,0x9f,0xff,0xdd,0x00, // 16880
0xe4,0xfc,0xe6,0xfc,0x74,0x01,0xfc,0x01, 0x2a,0xff,0xf8,0x01,0x93,0xfd,0x8a,0xfc, // 16896
0x37,0xff,0x8e,0xfd,0x80,0x00,0x72,0xfe, 0x41,0xfe,0xea,0xff,0x19,0xfe,0x1d,0xfd, // 16912
0x75,0xff,0xcd,0xfe,0x30,0x00,0x3e,0x01, 0xf2,0x01,0x10,0x00,0x0c,0x00,0x09,0x01, // 16928
0x90,0x02,0xc1,0x01,0x7c,0xfe,0xd3,0x00, 0x2c,0x01,0x89,0xfd,0x9f,0xfe,0x04,0x00, // 16944
0x18,0xfd,0x40,0xff,0x0b,0xfe,0x8b,0x01, 0x15,0x00,0x1d,0xfd,0x44,0x02,0xf9,0xfd, // 16960
0x94,0xfd,0x03,0xff,0x94,0xfb,0x81,0x00, 0x89,0xfd,0xf2,0xff,0x2c,0xff,0x89,0xff, // 16976
0x42,0x00,0x15,0xfe,0x00,0xfc,0x36,0x01, 0xfa,0x00,0xad,0x01,0x29,0xff,0xa0,0x02, // 16992
0x6f,0x02,0xe8,0x00,0x05,0x01,0x86,0x00, 0x78,0xff,0x3f,0x01,0xfb,0xff,0x93,0xff, // 17008
0xc2,0x04,0x82,0xff,0x7c,0x01,0x0a,0x02, 0x78,0x02,0x75,0x00,0x93,0x02,0xe1,0x03, // 17024
0x01,0x02,0xa8,0x03,0x44,0x02,0x00,0x02, 0x10,0xfb,0x2d,0xfe,0x23,0xfe,0xa1,0x01, // 17040
0xaf,0x01,0x8a,0x00,0xe3,0x04,0x3a,0xfd, 0xb7,0x01,0x04,0x02,0x60,0x04,0xf0,0xfd, // 17056
0x7d,0xfd,0x88,0x01,0x95,0x00,0x7c,0x03, 0xf1,0x00,0x42,0x00,0x96,0x00,0x14,0xfe, // 17072
0xae,0x02,0xf3,0xfb,0x9d,0x02,0xa1,0x03, 0x48,0xf9,0x09,0x02,0x53,0x02,0x27,0x02, // 17088
0xa4,0x01,0x16,0xfd,0x92,0x00,0x48,0x01, 0xde,0x01,0xc6,0x01,0x7e,0x04,0x83,0x01, // 17104
0x33,0x02,0x37,0x01,0x34,0xfe,0xc3,0x01, 0x31,0xfc,0xb4,0xfd,0x7a,0xff,0x1e,0xfb, // 17120
0xee,0xff,0x48,0x01,0xe1,0x00,0x23,0x01, 0x12,0xfd,0x05,0x00,0xf4,0x02,0x48,0x00, // 17136
0xe2,0x00,0xed,0x01,0x1a,0x01,0xb8,0xfd, 0xbb,0x03,0x4c,0x03,0x24,0x00,0x8d,0x02, // 17152
0x52,0x00,0x33,0x00,0x18,0xfd,0x6f,0x00, 0x17,0x01,0x15,0x01,0xfc,0x00,0x78,0xfe, // 17168
0x39,0x01,0x9f,0xfe,0x8c,0x05,0x05,0x00, 0x71,0x01,0x98,0xfc,0xf7,0x00,0x8c,0x00, // 17184
0x6a,0xfc,0xa4,0xff,0x9f,0xfe,0xbf,0xfe, 0x9b,0x03,0x5f,0xff,0x12,0x02,0x3a,0xfe, // 17200
0xec,0xfd,0x39,0xfb,0x8d,0xff,0x71,0x00, 0xd0,0xf8,0xfc,0x01,0x5d,0x00,0x39,0x03, // 17216
0x43,0x00,0x21,0xfe,0x14,0x01,0x9a,0xff, 0x02,0x01,0x04,0xfe,0x88,0xff,0x29,0x00, // 17232
0x1b,0x03,0x4a,0xfa,0x3d,0x00,0xb9,0xff, 0xa5,0xef,0x4e,0xfd,0xeb,0xfd,0x5b,0xf9, // 17248
0x8a,0xfc,0x14,0x02,0x13,0xfe,0xc1,0xfe, 0x1c,0x01,0xb3,0x01,0xc3,0xfa,0x91,0x00, // 17264
0xc7,0xfd,0x10,0xfe,0xc0,0xfd,0xc0,0x00, 0x5f,0x01,0x54,0xfe,0x5a,0x02,0xf7,0x01, // 17280
0x28,0xff,0xa6,0xff,0xae,0x00,0xa8,0xff, 0x92,0xff,0xd1,0xfc,0x3a,0xff,0xe7,0xfe, // 17296
0xf8,0xff,0x99,0x01,0xa4,0x01,0xaa,0x00, 0x8d,0x00,0x02,0xfd,0x51,0xfd,0xb1,0xfd, // 17312
0x19,0xff,0x26,0x02,0xa6,0xfd,0xf7,0xfe, 0x26,0x02,0x42,0x02,0x30,0xfe,0x1f,0xfe, // 17328
0xd1,0xfd,0x2a,0xff,0x03,0xff,0x19,0x02, 0x12,0xfe,0x9e,0x00,0x6b,0xff,0xed,0xff, // 17344
0x87,0x00,0x04,0xfd,0x25,0x00,0x62,0xfd, 0xbe,0xff,0x00,0xff,0xea,0xfc,0xa5,0x00, // 17360
0x6b,0x01,0xfe,0xff,0xd9,0xfc,0xd0,0xfd, 0xe4,0x01,0xe9,0xfc,0x66,0xfe,0x84,0x02, // 17376
0x2d,0xfd,0xc3,0x01,0x17,0xfd,0x62,0xff, 0x6a,0xff,0x7d,0xff,0x37,0xfe,0x9f,0xfc, // 17392
0x17,0xff,0x5a,0xfe,0x28,0xfe,0xa0,0x02, 0xcf,0xfd,0x5e,0xfc,0xdd,0xfc,0x5f,0xfe, // 17408
0x08,0x01,0x0f,0x00,0x40,0x00,0xd3,0xff, 0x9f,0x00,0x9e,0x00,0x65,0xff,0xde,0xfe, // 17424
0xdd,0xff,0x1d,0xfe,0x25,0x01,0xf2,0xff, 0x70,0x00,0x65,0xfd,0x90,0x00,0xea,0xfd, // 17440
0x80,0xff,0xbd,0xfd,0x82,0xfc,0xeb,0xff, 0xc1,0xfd,0x2e,0x02,0x6b,0x01,0x82,0xff, // 17456
0x17,0xff,0x5c,0xfe,0xd6,0xff,0x54,0xff, 0x14,0xff,0xcd,0xfe,0x7d,0x00,0x6f,0x01, // 17472
0x4e,0x01,0x7a,0x02,0xdc,0xfe,0x76,0x00, 0x9b,0x01,0xd3,0x00,0xc8,0x00,0x5e,0x01, // 17488
0xe6,0xfe,0xeb,0x02,0x8c,0x00,0x2d,0xff, 0x02,0xff,0x61,0xfe,0xac,0xfe,0x97,0xff, // 17504
0x7c,0x01,0x60,0x02,0xaf,0x00,0xc4,0xff, 0x32,0xfd,0x91,0x01,0xf9,0x01,0xac,0x02, // 17520
0xf4,0xfe,0x80,0xff,0x6e,0x00,0x2c,0xff, 0x8a,0xfb,0xe0,0xff,0xe5,0x01,0xf2,0xff, // 17536
0xe6,0x00,0xdb,0xfc,0x66,0x01,0x30,0x00, 0xe5,0xfe,0x61,0xff,0xf7,0xfc,0x34,0x00, // 17552
0xdb,0xff,0x71,0xfd,0x47,0xfd,0x4c,0xfe, 0x3a,0x00,0x83,0xfe,0x7d,0xff,0x6d,0xfd, // 17568
0x41,0xfd,0xba,0x02,0x5d,0x00,0x3d,0x00, 0xd6,0xfc,0xc8,0x00,0xef,0xff,0xff,0x00, // 17584
0xfe,0xfd,0xc2,0xff,0xc4,0xfd,0xd2,0x01, 0xb8,0x01,0x65,0xff,0x9e,0xfc,0xc4,0xff, // 17600
0x03,0xfe,0x11,0x01,0x1c,0xff,0x61,0xfe, 0x2c,0xff,0xb6,0xfc,0xbe,0xfc,0x45,0x00, // 17616
0xca,0x00,0x86,0xff,0xe9,0xfd,0xbe,0x01, 0x15,0x00,0x1a,0xfe,0x2d,0x01,0x2b,0xfe, // 17632
0xb6,0x01,0xe5,0xff,0x2f,0x01,0x16,0xff, 0x28,0x00,0x3d,0x00,0x06,0x02,0xb9,0x02, // 17648
0x6f,0x02,0x55,0xfd,0x09,0x01,0x8c,0x01, 0x51,0x01,0x04,0x01,0x7b,0x01,0x54,0xfc, // 17664
